{
  "version": "1.0",
  "truncation": null,
  "padding": null,
  "added_tokens": [
    {
      "id": 0,
      "content": "<|endoftext|>",
      "single_word": false,
      "lstrip": false,
      "rstrip": false,
      "normalized": false,
      "special": true
    },
    {
      "id": 1,
      "content": "<|pad|>",
      "single_word": false,
      "lstrip": false,
      "rstrip": false,
      "normalized": false,
      "special": true
    },
    {
      "id": 2,
      "content": "<|system|>",
      "single_word": false,
      "lstrip": false,
      "rstrip": false,
      "normalized": false,
      "special": true
    },
    {
      "id": 3,
      "content": "<|user|>",
      "single_word": false,
      "lstrip": false,
      "rstrip": false,
      "normalized": false,
      "special": true
    },
    {
      "id": 4,
      "content": "<|assistant|>",
      "single_word": false,
      "lstrip": false,
      "rstrip": false,
      "normalized": false,
      "special": true
    },
    {
      "id": 5,
      "content": "<|image_start|>",
      "single_word": false,
      "lstrip": false,
      "rstrip": false,
      "normalized": false,
      "special": true
    },
    {
      "id": 6,
      "content": "<|image|>",
      "single_word": false,
      "lstrip": false,
      "rstrip": false,
      "normalized": false,
      "special": true
    },
    {
      "id": 7,
      "content": "<|image_end|>",
      "single_word": false,
      "lstrip": false,
      "rstrip": false,
      "normalized": false,
      "special": true
    }
  ],
  "normalizer": null,
  "pre_tokenizer": {
    "type": "ByteLevel",
    "add_prefix_space": false,
    "trim_offsets": true,
    "use_regex": true
  },
  "post_processor": {
    "type": "ByteLevel",
    "add_prefix_space": true,
    "trim_offsets": false,
    "use_regex": true
  },
  "decoder": {
    "type": "ByteLevel",
    "add_prefix_space": true,
    "trim_offsets": true,
    "use_regex": true
  },
  "model": {
    "type": "BPE",
    "dropout": null,
    "unk_token": null,
    "continuing_subword_prefix": null,
    "end_of_word_suffix": null,
    "fuse_unk": false,
    "byte_fallback": false,
    "ignore_merges": false,
    "vocab": {
      "<|endoftext|>": 0,
      "<|pad|>": 1,
      "<|system|>": 2,
      "<|user|>": 3,
      "<|assistant|>": 4,
      "<|image_start|>": 5,
      "<|image|>": 6,
      "<|image_end|>": 7,
      "!": 8,
      "\"": 9,
      "#": 10,
      "$": 11,
      "%": 12,
      "&": 13,
      "'": 14,
      "(": 15,
      ")": 16,
      "*": 17,
      "+": 18,
      ",": 19,
      "-": 20,
      ".": 21,
      "/": 22,
      "0": 23,
      "1": 24,
      "2": 25,
      "3": 26,
      "4": 27,
      "5": 28,
      "6": 29,
      "7": 30,
      "8": 31,
      "9": 32,
      ":": 33,
      ";": 34,
      "<": 35,
      "=": 36,
      ">": 37,
      "?": 38,
      "@": 39,
      "A": 40,
      "B": 41,
      "C": 42,
      "D": 43,
      "E": 44,
      "F": 45,
      "G": 46,
      "H": 47,
      "I": 48,
      "J": 49,
      "K": 50,
      "L": 51,
      "M": 52,
      "N": 53,
      "O": 54,
      "P": 55,
      "Q": 56,
      "R": 57,
      "S": 58,
      "T": 59,
      "U": 60,
      "V": 61,
      "W": 62,
      "X": 63,
      "Y": 64,
      "Z": 65,
      "[": 66,
      "\\": 67,
      "]": 68,
      "^": 69,
      "_": 70,
      "`": 71,
      "a": 72,
      "b": 73,
      "c": 74,
      "d": 75,
      "e": 76,
      "f": 77,
      "g": 78,
      "h": 79,
      "i": 80,
      "j": 81,
      "k": 82,
      "l": 83,
      "m": 84,
      "n": 85,
      "o": 86,
      "p": 87,
      "q": 88,
      "r": 89,
      "s": 90,
      "t": 91,
      "u": 92,
      "v": 93,
      "w": 94,
      "x": 95,
      "y": 96,
      "z": 97,
      "{": 98,
      "|": 99,
      "}": 100,
      "~": 101,
      "¡": 102,
      "¢": 103,
      "£": 104,
      "¤": 105,
      "¥": 106,
      "¦": 107,
      "§": 108,
      "¨": 109,
      "©": 110,
      "ª": 111,
      "«": 112,
      "¬": 113,
      "®": 114,
      "¯": 115,
      "°": 116,
      "±": 117,
      "²": 118,
      "³": 119,
      "´": 120,
      "µ": 121,
      "¶": 122,
      "·": 123,
      "¸": 124,
      "¹": 125,
      "º": 126,
      "»": 127,
      "¼": 128,
      "½": 129,
      "¾": 130,
      "¿": 131,
      "À": 132,
      "Á": 133,
      "Â": 134,
      "Ã": 135,
      "Ä": 136,
      "Å": 137,
      "Æ": 138,
      "Ç": 139,
      "È": 140,
      "É": 141,
      "Ê": 142,
      "Ë": 143,
      "Ì": 144,
      "Í": 145,
      "Î": 146,
      "Ï": 147,
      "Ð": 148,
      "Ñ": 149,
      "Ò": 150,
      "Ó": 151,
      "Ô": 152,
      "Õ": 153,
      "Ö": 154,
      "×": 155,
      "Ø": 156,
      "Ù": 157,
      "Ú": 158,
      "Û": 159,
      "Ü": 160,
      "Ý": 161,
      "Þ": 162,
      "ß": 163,
      "à": 164,
      "á": 165,
      "â": 166,
      "ã": 167,
      "ä": 168,
      "å": 169,
      "æ": 170,
      "ç": 171,
      "è": 172,
      "é": 173,
      "ê": 174,
      "ë": 175,
      "ì": 176,
      "í": 177,
      "î": 178,
      "ï": 179,
      "ð": 180,
      "ñ": 181,
      "ò": 182,
      "ó": 183,
      "ô": 184,
      "õ": 185,
      "ö": 186,
      "÷": 187,
      "ø": 188,
      "ù": 189,
      "ú": 190,
      "û": 191,
      "ü": 192,
      "ý": 193,
      "þ": 194,
      "ÿ": 195,
      "Ā": 196,
      "ā": 197,
      "Ă": 198,
      "ă": 199,
      "Ą": 200,
      "ą": 201,
      "Ć": 202,
      "ć": 203,
      "Ĉ": 204,
      "ĉ": 205,
      "Ċ": 206,
      "ċ": 207,
      "Č": 208,
      "č": 209,
      "Ď": 210,
      "ď": 211,
      "Đ": 212,
      "đ": 213,
      "Ē": 214,
      "ē": 215,
      "Ĕ": 216,
      "ĕ": 217,
      "Ė": 218,
      "ė": 219,
      "Ę": 220,
      "ę": 221,
      "Ě": 222,
      "ě": 223,
      "Ĝ": 224,
      "ĝ": 225,
      "Ğ": 226,
      "ğ": 227,
      "Ġ": 228,
      "ġ": 229,
      "Ģ": 230,
      "ģ": 231,
      "Ĥ": 232,
      "ĥ": 233,
      "Ħ": 234,
      "ħ": 235,
      "Ĩ": 236,
      "ĩ": 237,
      "Ī": 238,
      "ī": 239,
      "Ĭ": 240,
      "ĭ": 241,
      "Į": 242,
      "į": 243,
      "İ": 244,
      "ı": 245,
      "Ĳ": 246,
      "ĳ": 247,
      "Ĵ": 248,
      "ĵ": 249,
      "Ķ": 250,
      "ķ": 251,
      "ĸ": 252,
      "Ĺ": 253,
      "ĺ": 254,
      "Ļ": 255,
      "ļ": 256,
      "Ľ": 257,
      "ľ": 258,
      "Ŀ": 259,
      "ŀ": 260,
      "Ł": 261,
      "ł": 262,
      "Ń": 263,
      "Ġt": 264,
      "Ġa": 265,
      "he": 266,
      "in": 267,
      "re": 268,
      "Ġthe": 269,
      "on": 270,
      "er": 271,
      "Ġo": 272,
      "at": 273,
      "Ġs": 274,
      "en": 275,
      "Ġc": 276,
      "Ġw": 277,
      "es": 278,
      "is": 279,
      "nd": 280,
      "it": 281,
      "or": 282,
      "Ġp": 283,
      "al": 284,
      "Ġb": 285,
      "ed": 286,
      "Ġof": 287,
      "an": 288,
      "Ġf": 289,
      "ing": 290,
      "Ġin": 291,
      "ou": 292,
      "ar": 293,
      "Ġm": 294,
      "Ġand": 295,
      "Ġto": 296,
      "ic": 297,
      "Ġd": 298,
      "ion": 299,
      "le": 300,
      "ro": 301,
      "as": 302,
      "Ġh": 303,
      "ent": 304,
      "Ġth": 305,
      "ct": 306,
      "Ġe": 307,
      "il": 308,
      "Ġre": 309,
      "om": 310,
      "ve": 311,
      "Ġl": 312,
      "st": 313,
      "Ġn": 314,
      "ly": 315,
      "Ġbe": 316,
      "âĢ": 317,
      "Ġis": 318,
      "ĠT": 319,
      "se": 320,
      "ol": 321,
      "Ġg": 322,
      "ation": 323,
      "im": 324,
      "id": 325,
      "et": 326,
      "ut": 327,
      "ot": 328,
      "ce": 329,
      "ur": 330,
      "ra": 331,
      "ch": 332,
      "ow": 333,
      "Ġfor": 334,
      "ĠA": 335,
      "ig": 336,
      "Ġu": 337,
      "Ġthat": 338,
      "Ġon": 339,
      "ĠS": 340,
      "Ġst": 341,
      "ver": 342,
      "Ġy": 343,
      "ĠI": 344,
      "ir": 345,
      "ĠC": 346,
      "ul": 347,
      "ay": 348,
      "am": 349,
      "Ġas": 350,
      "ith": 351,
      "el": 352,
      "ad": 353,
      "Ġpro": 354,
      "her": 355,
      "Ġare": 356,
      "Ġcon": 357,
      "Ġan": 358,
      "Ġwith": 359,
      "Ġyou": 360,
      "if": 361,
      "Ġwh": 362,
      "Ġit": 363,
      "Ġor": 364,
      "Ġal": 365,
      "od": 366,
      "ter": 367,
      "ĠM": 368,
      "ĠThe": 369,
      "Ġ(": 370,
      "ment": 371,
      "ge": 372,
      "ĠP": 373,
      "th": 374,
      "Ġ1": 375,
      "op": 376,
      "ate": 377,
      "ist": 378,
      "ers": 379,
      "Ġde": 380,
      "Ġhe": 381,
      "ill": 382,
      "ies": 383,
      "ess": 384,
      "ab": 385,
      "ĠB": 386,
      "Ġex": 387,
      "us": 388,
      "Ġwe": 389,
      "ore": 390,
      "ect": 391,
      "âĢĻ": 392,
      "Ġcom": 393,
      "Ġsu": 394,
      "ity": 395,
      "ac": 396,
      "est": 397,
      "res": 398,
      "ive": 399,
      "Ġha": 400,
      "um": 401,
      "ĠH": 402,
      "rom": 403,
      "ld": 404,
      "Ġv": 405,
      "os": 406,
      "ke": 407,
      "Ġby": 408,
      "ant": 409,
      "em": 410,
      "qu": 411,
      "iv": 412,
      "ain": 413,
      "ĠW": 414,
      "nt": 415,
      "Ġat": 416,
      "pp": 417,
      "igh": 418,
      "Ġcan": 419,
      "Ġwas": 420,
      "ĠD": 421,
      "ud": 422,
      "Ġfrom": 423,
      "Ġch": 424,
      "ĠE": 425,
      "oc": 426,
      "and": 427,
      "Ġr": 428,
      "ort": 429,
      "Ġne": 430,
      "ĠR": 431,
      "ĠF": 432,
      "Ġse": 433,
      "ial": 434,
      "ure": 435,
      "Ġ2": 436,
      "ĠâĢ": 437,
      "Ġnot": 438,
      "un": 439,
      "Ġle": 440,
      "art": 441,
      "ical": 442,
      "ĠG": 443,
      "Ġhave": 444,
      "ĠN": 445,
      "ri": 446,
      "og": 447,
      "ĠL": 448,
      "Ġsh": 449,
      "Ġen": 450,
      "Ġthis": 451,
      "Ġsp": 452,
      "Ġab": 453,
      "pt": 454,
      "ight": 455,
      "ich": 456,
      "rou": 457,
      "Ġwor": 458,
      "red": 459,
      "all": 460,
      "ould": 461,
      "ther": 462,
      "ions": 463,
      "ost": 464,
      "gh": 465,
      "The": 466,
      "ome": 467,
      "00": 468,
      "our": 469,
      "du": 470,
      "Ġim": 471,
      "ated": 472,
      "Ġus": 473,
      "ine": 474,
      "per": 475,
      "Ġpl": 476,
      "out": 477,
      "ag": 478,
      "ard": 479,
      "Ġtheir": 480,
      "ell": 481,
      "ide": 482,
      "ff": 483,
      "act": 484,
      "Ġint": 485,
      "ans": 486,
      "ĠO": 487,
      "ast": 488,
      "pl": 489,
      "ear": 490,
      "age": 491,
      "ak": 492,
      "ust": 493,
      "Ġwhich": 494,
      "Ġyour": 495,
      "Ġk": 496,
      "Ġwhe": 497,
      "Ġthey": 498,
      "ec": 499,
      "ous": 500,
      "ĠJ": 501,
      "iz": 502,
      "ood": 503,
      "ĠU": 504,
      "Ġall": 505,
      "ult": 506,
      "Ġad": 507,
      "Ġwill": 508,
      "ib": 509,
      "Ġcont": 510,
      "Ġinc": 511,
      "ĠIn": 512,
      "end": 513,
      "cc": 514,
      "Ġdis": 515,
      "ru": 516,
      "Ġmore": 517,
      "ong": 518,
      "Ġcomp": 519,
      "ap": 520,
      "âĢĿ": 521,
      "Ġres": 522,
      "ia": 523,
      "ip": 524,
      "vel": 525,
      "Ġhas": 526,
      "ations": 527,
      "ew": 528,
      "ere": 529,
      "so": 530,
      "Ġdo": 531,
      "orm": 532,
      "ater": 533,
      "ary": 534,
      "ĠTh": 535,
      "able": 536,
      "ild": 537,
      "are": 538,
      "ence": 539,
      "Ġman": 540,
      "Ġother": 541,
      "Ġcl": 542,
      "ual": 543,
      "ks": 544,
      "Ġbut": 545,
      "Ġwere": 546,
      "ry": 547,
      "ind": 548,
      "ep": 549,
      "Ġte": 550,
      "Ġper": 551,
      "ents": 552,
      "Ġme": 553,
      "Ġimp": 554,
      "ach": 555,
      "Ġone": 556,
      "ĠâĢľ": 557,
      "Ġalso": 558,
      "ance": 559,
      "reat": 560,
      "ose": 561,
      "ake": 562,
      "ign": 563,
      "'s": 564,
      "ress": 565,
      "ass": 566,
      "ase": 567,
      "au": 568,
      "Ġso": 569,
      "av": 570,
      "Ġ19": 571,
      "ction": 572,
      "Ġj": 573,
      "ition": 574,
      "Ġout": 575,
      "ice": 576,
      "one": 577,
      "Ġar": 578,
      "ime": 579,
      "Ġun": 580,
      "very": 581,
      "Ġapp": 582,
      "ber": 583,
      "Ġpart": 584,
      "Ġabout": 585,
      "Ġstud": 586,
      "ord": 587,
      "ace": 588,
      "Ġev": 589,
      "ory": 590,
      "ens": 591,
      "ok": 592,
      "ack": 593,
      "ount": 594,
      "ish": 595,
      "Ġwho": 596,
      "ame": 597,
      "ire": 598,
      "ĠSt": 599,
      "Ġpe": 600,
      "Ġinf": 601,
      "Ġhis": 602,
      ").": 603,
      "Ġsy": 604,
      "Ġthem": 605,
      "Ġcomm": 606,
      "ue": 607,
      "ors": 608,
      "ub": 609,
      "ite": 610,
      "ces": 611,
      "Ġsc": 612,
      "ike": 613,
      "ĠK": 614,
      "ang": 615,
      "ree": 616,
      "ound": 617,
      "now": 618,
      "olog": 619,
      "low": 620,
      "ĠIt": 621,
      "Ġbec": 622,
      "Ġup": 623,
      "Ġpre": 624,
      "ie": 625,
      "Ġmay": 626,
      "Ġ\"": 627,
      "Ġqu": 628,
      "Ġthan": 629,
      "ric": 630,
      "ile": 631,
      "iff": 632,
      "ople": 633,
      "Ġsome": 634,
      "ays": 635,
      "ĠCh": 636,
      "Ġyear": 637,
      "Ġrec": 638,
      "ail": 639,
      "Ġbeen": 640,
      "Ġthere": 641,
      "ates": 642,
      "nder": 643,
      "Ġwhen": 644,
      "ian": 645,
      "ings": 646,
      "Ġits": 647,
      "ough": 648,
      "Ġinto": 649,
      "Ġgo": 650,
      "mer": 651,
      "Ġag": 652,
      "Ġtime": 653,
      "ren": 654,
      "Ġtra": 655,
      "Ġwork": 656,
      "ĠThis": 657,
      "ph": 658,
      "Ġover": 659,
      "te": 660,
      "rit": 661,
      "Ġthese": 662,
      "erv": 663,
      "Ġpeople": 664,
      "vers": 665,
      "ons": 666,
      "Ġdiff": 667,
      "Ġhow": 668,
      "ally": 669,
      "Ġ20": 670,
      "rough": 671,
      "ĠV": 672,
      "lud": 673,
      "Ġuse": 674,
      "ause": 675,
      "Ġro": 676,
      "Ġcons": 677,
      "ond": 678,
      "Ġour": 679,
      "ms": 680,
      "Ġtr": 681,
      "ll": 682,
      "Ġcol": 683,
      "tern": 684,
      "Ġhad": 685,
      "Ġra": 686,
      "ove": 687,
      "ific": 688,
      "Ġact": 689,
      "Ġbet": 690,
      "we": 691,
      "Ġ3": 692,
      "Ġmost": 693,
      "int": 694,
      "Ġknow": 695,
      "Ġlike": 696,
      "Ġunder": 697,
      "alth": 698,
      "ities": 699,
      "Ġbl": 700,
      "irst": 701,
      "ys": 702,
      "ments": 703,
      "lic": 704,
      "Ġdes": 705,
      "lect": 706,
      "ject": 707,
      "ning": 708,
      "Ġwould": 709,
      "ook": 710,
      "ious": 711,
      "les": 712,
      "Ġacc": 713,
      "row": 714,
      "Ġsa": 715,
      "ĠY": 716,
      "velop": 717,
      "stem": 718,
      "Ġneed": 719,
      "Ġrel": 720,
      "Ġtw": 721,
      "Ġnew": 722,
      "Ġsuch": 723,
      "ffect": 724,
      "Ġif": 725,
      "Ġrep": 726,
      "Ġany": 727,
      "Ġchild": 728,
      "Ġhel": 729,
      "ient": 730,
      "Ġgen": 731,
      "Ġinclud": 732,
      "ob": 733,
      "ational": 734,
      "cess": 735,
      "ular": 736,
      "ative": 737,
      "Ġwhat": 738,
      "ple": 739,
      "hed": 740,
      "yp": 741,
      "Ġused": 742,
      "Ġhelp": 743,
      "Ġonly": 744,
      "ced": 745,
      "ool": 746,
      "ating": 747,
      "Ġph": 748,
      "Ġpr": 749,
      "Ġprodu": 750,
      "ov": 751,
      "Ġprov": 752,
      "Ġmany": 753,
      "Ġind": 754,
      "Ġno": 755,
      "Ġam": 756,
      "Ġdevelop": 757,
      "Ġthrough": 758,
      "Ġoff": 759,
      "Ġfirst": 760,
      "),": 761,
      "Ġfe": 762,
      "ĠUn": 763,
      "fter": 764,
      "Ġspec": 765,
      "ath": 766,
      "Ġreg": 767,
      "Ġac": 768,
      "oss": 769,
      "ark": 770,
      "round": 771,
      "iet": 772,
      "ise": 773,
      "uc": 774,
      "ics": 775,
      "Ġpo": 776,
      "Ġexp": 777,
      "Ġem": 778,
      "erm": 779,
      "hen": 780,
      "ful": 781,
      "rib": 782,
      "uring": 783,
      "Ġtwo": 784,
      "oth": 785,
      "ink": 786,
      "ts": 787,
      "Ġsystem": 788,
      "eth": 789,
      "Ġdiffere": 790,
      "ne": 791,
      "iss": 792,
      "ied": 793,
      "old": 794,
      "Ġob": 795,
      "als": 796,
      "ility": 797,
      "Ġass": 798,
      "rop": 799,
      "Ġdec": 800,
      "ible": 801,
      "Ġatt": 802,
      "ased": 803,
      "Ġadd": 804,
      "ĠâĢĵ": 805,
      "ten": 806,
      "Ġsur": 807,
      "ife": 808,
      "Ġshould": 809,
      "ange": 810,
      "Ġ-": 811,
      "ĠHe": 812,
      "ures": 813,
      "fore": 814,
      "ower": 815,
      "ert": 816,
      "In": 817,
      "Ġwell": 818,
      "ble": 819,
      "arch": 820,
      "aw": 821,
      "Ġwater": 822,
      "ween": 823,
      "ram": 824,
      "Ġfl": 825,
      "ract": 826,
      "Ġsupp": 827,
      "Ġrem": 828,
      "ng": 829,
      "Ġinv": 830,
      "Ġsub": 831,
      "Ġyears": 832,
      "own": 833,
      "sel": 834,
      "Ġco": 835,
      "ade": 836,
      "Ġ201": 837,
      "gan": 838,
      "Ġhealth": 839,
      "Ġbetween": 840,
      "Ġsm": 841,
      "hes": 842,
      "Ġpres": 843,
      "Ġ200": 844,
      "Ġhigh": 845,
      "Ġ4": 846,
      "cy": 847,
      "ution": 848,
      "its": 849,
      "Ġcould": 850,
      "Ġwhere": 851,
      "ever": 852,
      "ick": 853,
      "Ġmake": 854,
      "Ġtrans": 855,
      "wn": 856,
      "ily": 857,
      "uch": 858,
      "Ġget": 859,
      "xt": 860,
      "ants": 861,
      "chool": 862,
      "Ġbu": 863,
      "ss": 864,
      "ology": 865,
      "Ġimport": 866,
      "Ġ5": 867,
      "chn": 868,
      "Ġpers": 869,
      "Ġher": 870,
      "form": 871,
      "ural": 872,
      "ident": 873,
      "Ġinter": 874,
      "Ġear": 875,
      "Ġrese": 876,
      "ience": 877,
      "ited": 878,
      "Ġform": 879,
      "ting": 880,
      "Ġmod": 881,
      "Ġnum": 882,
      "Ġinst": 883,
      "meric": 884,
      "ivers": 885,
      "Ġpol": 886,
      "land": 887,
      "Ġdisc": 888,
      "ines": 889,
      "Ġexam": 890,
      "ins": 891,
      "ont": 892,
      "Ġfound": 893,
      "hat": 894,
      "Ġdifferent": 895,
      "Ġlear": 896,
      "ict": 897,
      "Ġbecause": 898,
      "ists": 899,
      "ef": 900,
      "ually": 901,
      "Ġafter": 902,
      "Ġsim": 903,
      "ata": 904,
      "gy": 905,
      "Ġthen": 906,
      "Ġlar": 907,
      "ness": 908,
      "Ġcar": 909,
      "Ġlong": 910,
      "Ġexper": 911,
      "Ġeffect": 912,
      "Ġworld": 913,
      "Ġeven": 914,
      "Ġvery": 915,
      "Ġjust": 916,
      "ft": 917,
      "Ġmed": 918,
      "Ġway": 919,
      "cept": 920,
      "ism": 921,
      "Ġincre": 922,
      "Ġcent": 923,
      "Ġdet": 924,
      "Ġtyp": 925,
      "Ġinform": 926,
      "urn": 927,
      "Ġhum": 928,
      "oy": 929,
      "ature": 930,
      "other": 931,
      "get": 932,
      "aking": 933,
      "Ġed": 934,
      "Ġsee": 935,
      "Ġcount": 936,
      "Ġresp": 937,
      "ically": 938,
      "Ġ18": 939,
      "Ġke": 940,
      "ives": 941,
      "vent": 942,
      "ĠAmeric": 943,
      "Ġsign": 944,
      "ollow": 945,
      "Ġref": 946,
      "Ġthose": 947,
      "Ġgener": 948,
      "Ġvar": 949,
      "Ġprog": 950,
      "iew": 951,
      "Ġpat": 952,
      "Ġevery": 953,
      "Ġext": 954,
      "Ġcall": 955,
      "cer": 956,
      "Ġchildren": 957,
      "arm": 958,
      "omm": 959,
      "ck": 960,
      "Ġresult": 961,
      "Ġprocess": 962,
      "ases": 963,
      "Ġbeing": 964,
      "Ġsoc": 965,
      "Ġfact": 966,
      "Ġpub": 967,
      "Ġeach": 968,
      "ps": 969,
      "ues": 970,
      "led": 971,
      "Ġsaid": 972,
      "Ġloc": 973,
      "ds": 974,
      "Ġsec": 975,
      "ody": 976,
      "Ġgra": 977,
      "tle": 978,
      ".âĢĿ": 979,
      "ruct": 980,
      "Ġca": 981,
      "iron": 982,
      "Ġimportant": 983,
      "Ġtechn": 984,
      "Ġrequ": 985,
      "Ġlife": 986,
      "Ġpartic": 987,
      "ages": 988,
      "Th": 989,
      "Ġset": 990,
      "..": 991,
      "ork": 992,
      "ĠAl": 993,
      "ĠWe": 994,
      "Ġmuch": 995,
      "Ġdist": 996,
      "io": 997,
      "Ġcommun": 998,
      "Ġmy": 999,
      "Ġart": 1000,
      "Ġmon": 1001,
      "Ġshe": 1002,
      "Ġcre": 1003,
      "Ġdep": 1004,
      "ather": 1005,
      "Ġfam": 1006,
      "Ġdef": 1007,
      "Ġfood": 1008,
      "Ġduring": 1009,
      "Ġown": 1010,
      "imes": 1011,
      "ized": 1012,
      "Ġstudents": 1013,
      "Ġfollow": 1014,
      "Ġent": 1015,
      "vern": 1016,
      "ved": 1017,
      "ĠPro": 1018,
      "Ġinformation": 1019,
      "cent": 1020,
      "Ġread": 1021,
      "ĠThey": 1022,
      "ward": 1023,
      "Ġlead": 1024,
      "Ġlevel": 1025,
      "ices": 1026,
      "ĠAs": 1027,
      "Ġmade": 1028,
      "Ġright": 1029,
      "Ġsk": 1030,
      "Ġsame": 1031,
      "gg": 1032,
      "any": 1033,
      "Ġdoes": 1034,
      "Ġaut": 1035,
      "ĠRe": 1036,
      "ection": 1037,
      "Ġstudy": 1038,
      "ize": 1039,
      "Ġproble": 1040,
      "Ġfind": 1041,
      "Ġgrow": 1042,
      "hip": 1043,
      "Ġperson": 1044,
      "Ġdata": 1045,
      "Ġcur": 1046,
      "ĠIf": 1047,
      "Ġav": 1048,
      "Ġgood": 1049,
      "Ġschool": 1050,
      "Ġ6": 1051,
      "the": 1052,
      "Ġmin": 1053,
      "Ġback": 1054,
      "Ġend": 1055,
      "ted": 1056,
      "Ġins": 1057,
      "Ġboth": 1058,
      "Ġche": 1059,
      "ale": 1060,
      "Ġstr": 1061,
      "ĠAn": 1062,
      "Ġdi": 1063,
      "ĠFor": 1064,
      "onom": 1065,
      "und": 1066,
      "Ġusing": 1067,
      "Ġpop": 1068,
      "viron": 1069,
      "Ġcomple": 1070,
      "Ġbefore": 1071,
      "Ġgrou": 1072,
      "ality": 1073,
      "Ġshow": 1074,
      "Ġsmall": 1075,
      ".,": 1076,
      "Ġhist": 1077,
      "stand": 1078,
      "Ġgl": 1079,
      "Ġexpl": 1080,
      "ĠAr": 1081,
      "Ġcor": 1082,
      "ially": 1083,
      "19": 1084,
      "read": 1085,
      "ivid": 1086,
      "iversity": 1087,
      "ĠHow": 1088,
      "omen": 1089,
      "Ġmain": 1090,
      "Ġtreat": 1091,
      "ince": 1092,
      "Ġagain": 1093,
      "iel": 1094,
      "Ġoften": 1095,
      "ined": 1096,
      "inal": 1097,
      "ty": 1098,
      "Ġprot": 1099,
      "Ġtest": 1100,
      "Ġbo": 1101,
      "der": 1102,
      "ars": 1103,
      "rol": 1104,
      "ock": 1105,
      "Ġless": 1106,
      "Ġbr": 1107,
      "ergy": 1108,
      "nce": 1109,
      "20": 1110,
      "Ġsol": 1111,
      "Ġposs": 1112,
      "ĠInd": 1113,
      "Ġwhile": 1114,
      "Ġval": 1115,
      "Ġdise": 1116,
      "ex": 1117,
      "Ġday": 1118,
      "imate": 1119,
      "ix": 1120,
      "||": 1121,
      "Ġtake": 1122,
      "Ġstate": 1123,
      "ished": 1124,
      "Ġcell": 1125,
      "ute": 1126,
      "ĠSp": 1127,
      "000": 1128,
      "Ġlit": 1129,
      "akes": 1130,
      "Ġhim": 1131,
      "Ġnow": 1132,
      "Ġserv": 1133,
      "ax": 1134,
      "ien": 1135,
      "Ġocc": 1136,
      "Ġnumber": 1137,
      "Ġmem": 1138,
      "oh": 1139,
      "Ġfun": 1140,
      "ral": 1141,
      "Ġbody": 1142,
      "Ġvis": 1143,
      "ĠNew": 1144,
      "vironment": 1145,
      "Ġec": 1146,
      "Ġpower": 1147,
      "ier": 1148,
      "dition": 1149,
      "Ġresearch": 1150,
      "Ġris": 1151,
      "Ġorgan": 1152,
      "ides": 1153,
      "ulation": 1154,
      "Ġactiv": 1155,
      "irect": 1156,
      "iety": 1157,
      "iqu": 1158,
      "Ġhuman": 1159,
      "Ġdesign": 1160,
      "ury": 1161,
      "Ġchar": 1162,
      "air": 1163,
      "iving": 1164,
      "up": 1165,
      "Ġbel": 1166,
      "Ġclass": 1167,
      "ered": 1168,
      "Ġaround": 1169,
      "Ġhand": 1170,
      "Ġ10": 1171,
      "Ġmust": 1172,
      "ah": 1173,
      "ves": 1174,
      "Ġredu": 1175,
      "Ġsupport": 1176,
      "Ġdown": 1177,
      "ĠSc": 1178,
      "Ġthree": 1179,
      "Ġlook": 1180,
      "ters": 1181,
      "Ġcommon": 1182,
      "ium": 1183,
      "uss": 1184,
      "Ġconf": 1185,
      "Ġstart": 1186,
      "ital": 1187,
      "hers": 1188,
      "ven": 1189,
      "ger": 1190,
      "ave": 1191,
      "Ġgreat": 1192,
      "Ġest": 1193,
      "Ġcle": 1194,
      "aj": 1195,
      "Ġelect": 1196,
      "day": 1197,
      "Ġpoint": 1198,
      "rent": 1199,
      "Ġdid": 1200,
      "Ġplan": 1201,
      "This": 1202,
      "ains": 1203,
      "Ġgovern": 1204,
      "ving": 1205,
      "Ġser": 1206,
      "Ġlarge": 1207,
      "Ġ7": 1208,
      "ouse": 1209,
      "ĠBut": 1210,
      "acter": 1211,
      "self": 1212,
      "cl": 1213,
      "ross": 1214,
      "Ġland": 1215,
      "rain": 1216,
      "Ġexample": 1217,
      "gen": 1218,
      "Ġcare": 1219,
      "âĢĶ": 1220,
      "Ġcontin": 1221,
      "ĠYou": 1222,
      "Ġreport": 1223,
      "Ġop": 1224,
      "com": 1225,
      "Ġallow": 1226,
      "ron": 1227,
      "Ġ8": 1228,
      "itions": 1229,
      "ull": 1230,
      "ional": 1231,
      "ĠThere": 1232,
      "Ġincluding": 1233,
      "ee": 1234,
      "Ġconst": 1235,
      "orn": 1236,
      "Ġthough": 1237,
      "ash": 1238,
      "anc": 1239,
      "ared": 1240,
      "Ġunderstand": 1241,
      ",âĢĿ": 1242,
      "eg": 1243,
      "way": 1244,
      "Ġequ": 1245,
      "Ġcour": 1246,
      "Ġbuild": 1247,
      "Ġeduc": 1248,
      "Ġwrit": 1249,
      "Ġdr": 1250,
      "Ġadv": 1251,
      "Ġret": 1252,
      "Ġmet": 1253,
      "Ġsom": 1254,
      "Ġcalled": 1255,
      "ĠAnd": 1256,
      "Ġpract": 1257,
      "iver": 1258,
      "iven": 1259,
      "Ġstill": 1260,
      "Ġknown": 1261,
      "outh": 1262,
      "aterial": 1263,
      "ĠâĢĺ": 1264,
      "Ġbeh": 1265,
      "ner": 1266,
      "els": 1267,
      "ividual": 1268,
      "Ġquest": 1269,
      "Ġeas": 1270,
      "ired": 1271,
      "Ġthink": 1272,
      "Ġide": 1273,
      "Ġpublic": 1274,
      "erest": 1275,
      "reen": 1276,
      "ids": 1277,
      "oms": 1278,
      "Ġplace": 1279,
      "Ġgu": 1280,
      "iod": 1281,
      "ential": 1282,
      "osed": 1283,
      "inc": 1284,
      "oci": 1285,
      "ĠIs": 1286,
      "Ġappro": 1287,
      "ected": 1288,
      "Ġfew": 1289,
      "de": 1290,
      "Ġmight": 1291,
      "ider": 1292,
      "Ġ9": 1293,
      "âĢľ": 1294,
      "ries": 1295,
      "ization": 1296,
      "Ġmat": 1297,
      "ank": 1298,
      "10": 1299,
      "âĢĵ": 1300,
      "ources": 1301,
      "ination": 1302,
      "Ġpresent": 1303,
      "itive": 1304,
      "Ġstand": 1305,
      "Ġwant": 1306,
      "Ġenergy": 1307,
      "ĠThese": 1308,
      ".\"": 1309,
      "Ġdem": 1310,
      "ĠWh": 1311,
      "Ġenvironment": 1312,
      "Ġchang": 1313,
      "bers": 1314,
      "Ġcaus": 1315,
      "lish": 1316,
      "ration": 1317,
      "eng": 1318,
      "ense": 1319,
      "Ġwithin": 1320,
      "ethod": 1321,
      "Ġproduct": 1322,
      "raph": 1323,
      "Ġpur": 1324,
      "Ġwithout": 1325,
      "me": 1326,
      "oun": 1327,
      "Ġchange": 1328,
      "Ġiss": 1329,
      "Ġindividual": 1330,
      "ption": 1331,
      "ior": 1332,
      "ason": 1333,
      "ertain": 1334,
      "Ġdevelopment": 1335,
      "ording": 1336,
      "ived": 1337,
      "Ġtem": 1338,
      "ffic": 1339,
      "tt": 1340,
      "Ġsym": 1341,
      "Ġplay": 1342,
      "Ġphys": 1343,
      "esp": 1344,
      "Ġproject": 1345,
      "Ġ199": 1346,
      "ĠEng": 1347,
      "Ġimm": 1348,
      "Ġmaterial": 1349,
      "Ġlearn": 1350,
      "Ġimpro": 1351,
      "Ġdon": 1352,
      "line": 1353,
      "ets": 1354,
      "arent": 1355,
      "Ġcap": 1356,
      "Ġident": 1357,
      "Ġdisease": 1358,
      "ĠUniversity": 1359,
      "ĠDe": 1360,
      "angu": 1361,
      "Ġpot": 1362,
      "Ġben": 1363,
      "alk": 1364,
      "eral": 1365,
      "Ġair": 1366,
      "Ġdirect": 1367,
      "man": 1368,
      "less": 1369,
      "Ġsit": 1370,
      "Ġprof": 1371,
      "Ġsl": 1372,
      "Ġve": 1373,
      "ians": 1374,
      "Ġlight": 1375,
      "Ġpos": 1376,
      "Ġmus": 1377,
      "Ġbre": 1378,
      "Ġanother": 1379,
      "Ġpass": 1380,
      "iness": 1381,
      "Ġwomen": 1382,
      "Ġarea": 1383,
      "sc": 1384,
      "agn": 1385,
      "Ġ&": 1386,
      "ĠAmerican": 1387,
      "Ġbelie": 1388,
      "ability": 1389,
      "Ġhome": 1390,
      "orth": 1391,
      "Ġsocial": 1392,
      "Ġeng": 1393,
      "ental": 1394,
      "illion": 1395,
      "Ġlaw": 1396,
      "Ġinclude": 1397,
      "ological": 1398,
      "Ġmeas": 1399,
      "ajor": 1400,
      "Ġblood": 1401,
      "ĠCon": 1402,
      "Ġbest": 1403,
      "bs": 1404,
      "Ġinterest": 1405,
      "Ġcult": 1406,
      "ton": 1407,
      "ified": 1408,
      "Ġbas": 1409,
      "pr": 1410,
      "Ġdesc": 1411,
      "ield": 1412,
      "Ġpain": 1413,
      "erc": 1414,
      "Ġet": 1415,
      "ering": 1416,
      "Ġant": 1417,
      "rodu": 1418,
      "ify": 1419,
      "ug": 1420,
      "ained": 1421,
      "It": 1422,
      "atic": 1423,
      "Ġcontrol": 1424,
      "atural": 1425,
      "Ġrest": 1426,
      "ats": 1427,
      "Ġmark": 1428,
      "ccess": 1429,
      "Ġrisk": 1430,
      "ently": 1431,
      "Ġbecome": 1432,
      "Ġopp": 1433,
      "Ġmethod": 1434,
      "Ġanim": 1435,
      "Ġprogram": 1436,
      "Ġsever": 1437,
      "'t": 1438,
      "Ġhere": 1439,
      "ways": 1440,
      "Ġanal": 1441,
      "az": 1442,
      "Ġold": 1443,
      "ik": 1444,
      "ĠHowever": 1445,
      "ĠAd": 1446,
      "gin": 1447,
      "Ġmove": 1448,
      "Ġlow": 1449,
      "ource": 1450,
      "Ġbetter": 1451,
      "ĠPh": 1452,
      "ision": 1453,
      "Ġproper": 1454,
      "Ġleg": 1455,
      "ĠSh": 1456,
      "Ġeconom": 1457,
      "Ġgovernment": 1458,
      "Ġpar": 1459,
      "ills": 1460,
      "ining": 1461,
      "Ġearly": 1462,
      "hor": 1463,
      "rist": 1464,
      "Ġkeep": 1465,
      "Ġagainst": 1466,
      "lished": 1467,
      "here": 1468,
      "Ġmil": 1469,
      "Ġtoo": 1470,
      "ern": 1471,
      "Ġele": 1472,
      "to": 1473,
      "Ġwar": 1474,
      "rap": 1475,
      "Ġfore": 1476,
      "Ġorder": 1477,
      "Ġlast": 1478,
      "ware": 1479,
      "str": 1480,
      "Ġreal": 1481,
      "arc": 1482,
      "icle": 1483,
      "ead": 1484,
      "Ġprovide": 1485,
      "eed": 1486,
      "Ġtre": 1487,
      "Ġmeans": 1488,
      "Ġsecond": 1489,
      "Ġavail": 1490,
      "Ġter": 1491,
      "Ġoper": 1492,
      "Ġcause": 1493,
      "ories": 1494,
      "ards": 1495,
      "Ġhistory": 1496,
      "Ġmajor": 1497,
      "ention": 1498,
      "Ġfamily": 1499,
      "Ġgroup": 1500,
      "ients": 1501,
      "Ġoccur": 1502,
      "ission": 1503,
      "Ġpossible": 1504,
      "Ġparticular": 1505,
      "Ġtop": 1506,
      "Ġperform": 1507,
      "Ġunt": 1508,
      "amp": 1509,
      "ĠRes": 1510,
      "lu": 1511,
      "Ġcurrent": 1512,
      "Ġdev": 1513,
      "ĠWhen": 1514,
      "Ġseveral": 1515,
      "ĠUnited": 1516,
      "use": 1517,
      "ples": 1518,
      "view": 1519,
      "Ġsay": 1520,
      "Ġlearning": 1521,
      "Ġinvol": 1522,
      "Ġfin": 1523,
      "ĠCl": 1524,
      "Ġindu": 1525,
      "Ġperiod": 1526,
      "ised": 1527,
      "Ġaddition": 1528,
      "pect": 1529,
      "Ġable": 1530,
      "ote": 1531,
      "Ġspecies": 1532,
      "ograph": 1533,
      "par": 1534,
      "Ġsaf": 1535,
      "ĠEx": 1536,
      "irc": 1537,
      "oid": 1538,
      "Ġmean": 1539,
      "Ġnear": 1540,
      "Ġbenef": 1541,
      "Ġ.": 1542,
      "Ġmen": 1543,
      "ĠâĢĶ": 1544,
      "Ġorig": 1545,
      "Ġpercent": 1546,
      "Ġhapp": 1547,
      "ina": 1548,
      "Ġcal": 1549,
      "ogn": 1550,
      "Ġhig": 1551,
      "Ġel": 1552,
      "Ġ15": 1553,
      "Ġopen": 1554,
      "Ġthings": 1555,
      "ĠCol": 1556,
      "ĠPl": 1557,
      "Ġlangu": 1558,
      "Ġcr": 1559,
      "Ġprom": 1560,
      "idence": 1561,
      "Ġmar": 1562,
      "What": 1563,
      "Ġaffect": 1564,
      "Ġbus": 1565,
      "ane": 1566,
      "Ġsince": 1567,
      "Ġnon": 1568,
      "Ġfeel": 1569,
      "Ġ[": 1570,
      "ĠGod": 1571,
      "Ġlim": 1572,
      "ret": 1573,
      "Ġplant": 1574,
      "Ġothers": 1575,
      "Ġcost": 1576,
      "though": 1577,
      "ĠTo": 1578,
      "Ġareas": 1579,
      "br": 1580,
      "Ġsignific": 1581,
      "ator": 1582,
      "Ġamong": 1583,
      "urop": 1584,
      "Ġtreatment": 1585,
      "ilar": 1586,
      "osp": 1587,
      "Ġscient": 1588,
      "Ġfre": 1589,
      "of": 1590,
      "ĠCan": 1591,
      "sy": 1592,
      "Ġavailable": 1593,
      "Ġhead": 1594,
      "ww": 1595,
      "ended": 1596,
      "Ġtimes": 1597,
      "Ġbased": 1598,
      "ames": 1599,
      "port": 1600,
      "Ġname": 1601,
      "Ġfollowing": 1602,
      "ends": 1603,
      "Ġfac": 1604,
      "ĠZ": 1605,
      "ĠComm": 1606,
      "Ġcountry": 1607,
      "ĠSe": 1608,
      "ole": 1609,
      "ots": 1610,
      "ĠQ": 1611,
      "omp": 1612,
      "Ġfour": 1613,
      "ĠStates": 1614,
      "Ġprevent": 1615,
      "Ġaccess": 1616,
      "ocus": 1617,
      "Ġcertain": 1618,
      "Ġcome": 1619,
      "ably": 1620,
      "Ġcase": 1621,
      "ling": 1622,
      "Ġcond": 1623,
      "urther": 1624,
      "Ġfree": 1625,
      "Ġpost": 1626,
      "Ġsays": 1627,
      "elf": 1628,
      "ĠAt": 1629,
      "ances": 1630,
      "cing": 1631,
      "Ġwee": 1632,
      "Ġdel": 1633,
      "Ġage": 1634,
      "Ġproblem": 1635,
      "Ġlist": 1636,
      "une": 1637,
      "Ġlo": 1638,
      "Ġobject": 1639,
      "ression": 1640,
      "Ġrun": 1641,
      "Ġstruct": 1642,
      "Ġtype": 1643,
      "Ġconn": 1644,
      "Ġpress": 1645,
      "Ġmonth": 1646,
      ",\"": 1647,
      "Ġcreat": 1648,
      "Ġview": 1649,
      "Ġcells": 1650,
      "ided": 1651,
      "Ġlab": 1652,
      "be": 1653,
      "Ġrece": 1654,
      "Ġ17": 1655,
      "aper": 1656,
      "hy": 1657,
      "We": 1658,
      "Ġnatural": 1659,
      "Ġgr": 1660,
      "Ġbro": 1661,
      "Ġbi": 1662,
      "oint": 1663,
      "Ġput": 1664,
      "Ġproblems": 1665,
      "Ġlocal": 1666,
      "Ġsuccess": 1667,
      "Ġlittle": 1668,
      "ope": 1669,
      "Ġintern": 1670,
      "ones": 1671,
      "Ġvol": 1672,
      "ploy": 1673,
      "urope": 1674,
      "Ġhard": 1675,
      "resent": 1676,
      "stit": 1677,
      "icult": 1678,
      "Ġlevels": 1679,
      "Ġbir": 1680,
      "ething": 1681,
      "Ġassoci": 1682,
      "Ġamount": 1683,
      "If": 1684,
      "Ġyoung": 1685,
      "ĠCent": 1686,
      "Ġlet": 1687,
      "ggest": 1688,
      "Ġ12": 1689,
      "Ġbook": 1690,
      "__": 1691,
      "Ġuntil": 1692,
      "ĠEn": 1693,
      "Ġflow": 1694,
      "Ġmaking": 1695,
      "ĠTe": 1696,
      "Ġess": 1697,
      "Ġfar": 1698,
      "olution": 1699,
      "Ġmult": 1700,
      "work": 1701,
      "Ġlater": 1702,
      "ither": 1703,
      "ledge": 1704,
      "ortun": 1705,
      "Ġimpact": 1706,
      "ĠChrist": 1707,
      "por": 1708,
      "ately": 1709,
      "18": 1710,
      "Ġturn": 1711,
      "Ġgiven": 1712,
      "Ġshort": 1713,
      "atory": 1714,
      "ged": 1715,
      "not": 1716,
      "oks": 1717,
      "Ġdue": 1718,
      "ication": 1719,
      "Ġseem": 1720,
      "Ġsw": 1721,
      "Ġfocus": 1722,
      "Ġsignificant": 1723,
      "over": 1724,
      "Ġdeterm": 1725,
      "hem": 1726,
      "uture": 1727,
      "ĠNational": 1728,
      "Ġfunction": 1729,
      "Ġcho": 1730,
      "ĠBe": 1731,
      "12": 1732,
      "Ġheart": 1733,
      "ured": 1734,
      "Ġsuggest": 1735,
      "Ġbehav": 1736,
      "ĠAf": 1737,
      "Ġcomput": 1738,
      "cle": 1739,
      "Ġpolit": 1740,
      "aps": 1741,
      "aken": 1742,
      "Ġinvest": 1743,
      "ĠEurope": 1744,
      "ĠFr": 1745,
      "Ġeducation": 1746,
      "Ġvir": 1747,
      "icro": 1748,
      "Ġdays": 1749,
      "ĠOr": 1750,
      "Ġalong": 1751,
      "Ġsomething": 1752,
      "Ġcirc": 1753,
      "Ġcomb": 1754,
      "Ġfil": 1755,
      "Ġhy": 1756,
      "Ġlikely": 1757,
      "ĠWhat": 1758,
      "ried": 1759,
      "Ġteac": 1760,
      "Ġalways": 1761,
      "Ġcourse": 1762,
      "agement": 1763,
      "Ġrad": 1764,
      "Ġsystems": 1765,
      "face": 1766,
      "ĠOn": 1767,
      "Ġconsider": 1768,
      "ĠAll": 1769,
      "Ġdra": 1770,
      "Ġcommunity": 1771,
      "Ġusually": 1772,
      "orld": 1773,
      "Ġincrease": 1774,
      "vious": 1775,
      "Ġappear": 1776,
      "Ġsing": 1777,
      "ending": 1778,
      "ĠUS": 1779,
      "As": 1780,
      "ecially": 1781,
      "ring": 1782,
      "Ġrele": 1783,
      "Ġclear": 1784,
      "Ġgive": 1785,
      "isc": 1786,
      "Ġtechnology": 1787,
      "Ġobs": 1788,
      "Ġresults": 1789,
      "Ġspecific": 1790,
      "Ġdeath": 1791,
      "Ġdifficult": 1792,
      "Ġpast": 1793,
      "Ġ0": 1794,
      "Ġcreate": 1795,
      "Ġbrain": 1796,
      "aster": 1797,
      "Ġconsum": 1798,
      "Ġtoday": 1799,
      "Ġwords": 1800,
      "Ġenc": 1801,
      "Ġlanguage": 1802,
      "ape": 1803,
      "ours": 1804,
      "Ġneeds": 1805,
      "Ġparent": 1806,
      "Ġexperience": 1807,
      "Ġauthor": 1808,
      "There": 1809,
      "Ġ16": 1810,
      "Ġline": 1811,
      "Ġdescrib": 1812,
      "Ġsimilar": 1813,
      "ohn": 1814,
      "Ġspace": 1815,
      "ned": 1816,
      "Ġ$": 1817,
      "asing": 1818,
      "Ġexist": 1819,
      "ĠSo": 1820,
      "af": 1821,
      "etic": 1822,
      "Ġconditions": 1823,
      "min": 1824,
      "app": 1825,
      "Ġcentury": 1826,
      "Ġwhy": 1827,
      "Ġill": 1828,
      "ptoms": 1829,
      "Ġdiscuss": 1830,
      "ators": 1831,
      "ember": 1832,
      "Ġeffective": 1833,
      "especially": 1834,
      "Ġpopulation": 1835,
      "How": 1836,
      "Ġcancer": 1837,
      "Ġcharacter": 1838,
      "Ġey": 1839,
      "ĠMed": 1840,
      "aining": 1841,
      "Ġbegin": 1842,
      "idd": 1843,
      "Ġabove": 1844,
      "ruction": 1845,
      "Ġrecord": 1846,
      "Ġmillion": 1847,
      "Ġ'": 1848,
      "obal": 1849,
      "mit": 1850,
      "Ġnext": 1851,
      "50": 1852,
      "Ġvarious": 1853,
      "Ġnecess": 1854,
      "Ġspecial": 1855,
      "Ġtemper": 1856,
      "ribut": 1857,
      "ox": 1858,
      "Ġfuture": 1859,
      "ored": 1860,
      "ler": 1861,
      "Ġdam": 1862,
      "oney": 1863,
      "Ġmov": 1864,
      "11": 1865,
      "Ġchanges": 1866,
      "Ġgre": 1867,
      "most": 1868,
      "Ġask": 1869,
      "ique": 1870,
      "Ġworks": 1871,
      "Ġtoget": 1872,
      "Ġtogether": 1873,
      "ĠBrit": 1874,
      "Ġapplic": 1875,
      "Ġcrit": 1876,
      "Ġacross": 1877,
      "Ġprop": 1878,
      "Ġleast": 1879,
      "iation": 1880,
      "Ġhowever": 1881,
      "Ġtry": 1882,
      "atch": 1883,
      "rug": 1884,
      "Ġprofess": 1885,
      "Ġestab": 1886,
      "ĠBl": 1887,
      "ilities": 1888,
      "ray": 1889,
      "Ġhigher": 1890,
      "St": 1891,
      "Ġer": 1892,
      "Ġside": 1893,
      "selves": 1894,
      "Ġnever": 1895,
      "Ġkind": 1896,
      "Ġstrong": 1897,
      "ode": 1898,
      "Ġrespons": 1899,
      "ateg": 1900,
      "Ġrequire": 1901,
      "by": 1902,
      "Ġcountries": 1903,
      "orts": 1904,
      "Ġbusiness": 1905,
      "Ġleft": 1906,
      "sp": 1907,
      "aves": 1908,
      "Ġcomplete": 1909,
      "omes": 1910,
      "Ġimprove": 1911,
      "Ġtool": 1912,
      "ĠEar": 1913,
      "ison": 1914,
      "Ġterm": 1915,
      "Ġmot": 1916,
      "ĠAfric": 1917,
      "Ġways": 1918,
      "Ġenough": 1919,
      "Ġworking": 1920,
      "Ġplants": 1921,
      "Ġaway": 1922,
      "ym": 1923,
      "Ġespecially": 1924,
      "amm": 1925,
      "Ġtru": 1926,
      "oot": 1927,
      "thing": 1928,
      "ilt": 1929,
      "nal": 1930,
      "oman": 1931,
      "Ġkey": 1932,
      "aces": 1933,
      "Ġchem": 1934,
      "Ġeffects": 1935,
      "Ġgeneral": 1936,
      "Ġcy": 1937,
      "let": 1938,
      "for": 1939,
      "sw": 1940,
      "Ġpatients": 1941,
      "acy": 1942,
      "Ġresearc": 1943,
      "duct": 1944,
      "aring": 1945,
      "Ġhaving": 1946,
      "Ġcolle": 1947,
      "Ġsubject": 1948,
      "ysis": 1949,
      "Ġsens": 1950,
      "Ġfull": 1951,
      "lement": 1952,
      "acc": 1953,
      "alf": 1954,
      "Ġcases": 1955,
      "aching": 1956,
      "Ġtypes": 1957,
      "ipp": 1958,
      "Ġprim": 1959,
      "ĠGerm": 1960,
      "ument": 1961,
      "Ġstudies": 1962,
      "ales": 1963,
      "iting": 1964,
      "Ġnet": 1965,
      "Ġstep": 1966,
      "aim": 1967,
      "ires": 1968,
      "Ġteam": 1969,
      "Ġrelations": 1970,
      "Ġknowledge": 1971,
      "NA": 1972,
      "ĠWar": 1973,
      "Ġgoing": 1974,
      "hing": 1975,
      "Ġbecame": 1976,
      "Ġhouse": 1977,
      "Ġrepresent": 1978,
      "side": 1979,
      "Ġ198": 1980,
      "Ġaccount": 1981,
      "ges": 1982,
      "Ġnorm": 1983,
      "chie": 1984,
      "Ġwhether": 1985,
      "Ġmakes": 1986,
      "Ġconcer": 1987,
      "ued": 1988,
      "ĠSome": 1989,
      "Ġinflu": 1990,
      "istic": 1991,
      "Ġsymptoms": 1992,
      "An": 1993,
      "ising": 1994,
      "ency": 1995,
      "Ġmind": 1996,
      "Ġz": 1997,
      "ley": 1998,
      "Ġprotect": 1999,
      "apt": 2000,
      "Ġself": 2001,
      "Ġfurther": 2002,
      "Ġreason": 2003,
      "ae": 2004,
      "Ġphysical": 2005,
      "Ġrole": 2006,
      "Ġlive": 2007,
      "...": 2008,
      "Ġground": 2009,
      "itor": 2010,
      "ĠJohn": 2011,
      "Ġlower": 2012,
      "ification": 2013,
      "ann": 2014,
      "Ġquestion": 2015,
      "ready": 2016,
      "Ġopt": 2017,
      "ott": 2018,
      "ung": 2019,
      "//": 2020,
      "For": 2021,
      "ĠWorld": 2022,
      "Ġbig": 2023,
      "Ġcity": 2024,
      "ery": 2025,
      "Ġtext": 2026,
      "Ġsum": 2027,
      "ĠEnglish": 2028,
      "Ġsure": 2029,
      "ables": 2030,
      "Ġpolic": 2031,
      "ĠWith": 2032,
      "ĠGen": 2033,
      "ĠOne": 2034,
      "ĠLe": 2035,
      "aut": 2036,
      "Ġfund": 2037,
      "Ġdig": 2038,
      "Ġproduction": 2039,
      "ird": 2040,
      "ĠGo": 2041,
      "ites": 2042,
      "Ġchall": 2043,
      "atures": 2044,
      "Ġscience": 2045,
      "iol": 2046,
      "augh": 2047,
      "unt": 2048,
      "Ġactivities": 2049,
      "Ġpred": 2050,
      "Ġnut": 2051,
      "30": 2052,
      "edi": 2053,
      "Ġparticip": 2054,
      "ream": 2055,
      "Ġmodel": 2056,
      "Ġindic": 2057,
      "Ġeff": 2058,
      "Ġgroups": 2059,
      "Ġactivity": 2060,
      "lo": 2061,
      "erence": 2062,
      "Ġens": 2063,
      "cul": 2064,
      "Ġseen": 2065,
      "Ġstory": 2066,
      "Ġ30": 2067,
      "Ġtoward": 2068,
      "Ġrange": 2069,
      "Ġvalue": 2070,
      "ibility": 2071,
      "Ġgrowth": 2072,
      "urch": 2073,
      "200": 2074,
      "Ġreally": 2075,
      "bon": 2076,
      "Ġwr": 2077,
      "Ġresources": 2078,
      "rel": 2079,
      "Ġproducts": 2080,
      "Ġlot": 2081,
      "uation": 2082,
      "Ġbelow": 2083,
      "Ġstat": 2084,
      "://": 2085,
      "etimes": 2086,
      "Ġdone": 2087,
      "15": 2088,
      "sych": 2089,
      "Ġalready": 2090,
      "Ġclose": 2091,
      "Ġloss": 2092,
      "Ġrather": 2093,
      "oura": 2094,
      "osis": 2095,
      "Ġpotential": 2096,
      "Ġarticle": 2097,
      "Ġword": 2098,
      "verage": 2099,
      "ĠThat": 2100,
      "Ġquality": 2101,
      "ĠIntern": 2102,
      "Ġsite": 2103,
      "ĠCar": 2104,
      "mber": 2105,
      "Ġeither": 2106,
      "Ġoffic": 2107,
      "Ġdiet": 2108,
      "Ġdeveloped": 2109,
      "Ġwind": 2110,
      "esc": 2111,
      "Ġrecogn": 2112,
      "Ġpaper": 2113,
      "iple": 2114,
      "Ġ14": 2115,
      "Ġprob": 2116,
      "Ġtradition": 2117,
      "ands": 2118,
      "ĠMar": 2119,
      "16": 2120,
      "overed": 2121,
      "put": 2122,
      "Ġneg": 2123,
      "fact": 2124,
      "ĠHealth": 2125,
      "Ġachie": 2126,
      "Ġemploy": 2127,
      "rams": 2128,
      "Ġbat": 2129,
      "leep": 2130,
      "Ġsingle": 2131,
      "Ġfield": 2132,
      "Ġdeg": 2133,
      "Ġfall": 2134,
      "Ġbuilding": 2135,
      "ils": 2136,
      "Ġur": 2137,
      "Ġskills": 2138,
      "Ġphot": 2139,
      "When": 2140,
      "Ġevent": 2141,
      "iam": 2142,
      "Ġmass": 2143,
      "idered": 2144,
      "ival": 2145,
      "Ġflu": 2146,
      "ĠAm": 2147,
      "Ġsource": 2148,
      "Ġabs": 2149,
      "earch": 2150,
      "Ġissues": 2151,
      "ĠIm": 2152,
      "Ġreduce": 2153,
      "Ġonce": 2154,
      "ĠGe": 2155,
      "Ġaccording": 2156,
      "Ġfr": 2157,
      "amin": 2158,
      "ĠTr": 2159,
      "ĠShe": 2160,
      "ER": 2161,
      "Ġcollect": 2162,
      "Ġmeet": 2163,
      "Ġwhole": 2164,
      "Ġnational": 2165,
      "ublic": 2166,
      "Ġtaken": 2167,
      "Ġindust": 2168,
      "Ġfrequ": 2169,
      "val": 2170,
      "17": 2171,
      "ĠCal": 2172,
      "Ġquestions": 2173,
      "Ġevidence": 2174,
      "Ġrate": 2175,
      "Ġclimate": 2176,
      "Ġinit": 2177,
      "ĠAb": 2178,
      "Ġdrug": 2179,
      "ĠSy": 2180,
      "Ġupon": 2181,
      "Ġsun": 2182,
      "Ġconcept": 2183,
      "rict": 2184,
      "Ġrelig": 2185,
      "Ġsurface": 2186,
      "Ġfive": 2187,
      "urity": 2188,
      "ĠPr": 2189,
      "Ġmedical": 2190,
      "Ġmembers": 2191,
      "Ġaddress": 2192,
      "ĠDr": 2193,
      "Ġdom": 2194,
      "ĠNorth": 2195,
      "rect": 2196,
      "Ġwhite": 2197,
      "Ġcut": 2198,
      "ule": 2199,
      "Ġsent": 2200,
      "Ġconsidered": 2201,
      "Ġdetail": 2202,
      "fficient": 2203,
      "Ġfail": 2204,
      "ivil": 2205,
      "Ġcreated": 2206,
      "Ġfri": 2207,
      "Ġwide": 2208,
      "Ġcame": 2209,
      "ĠBy": 2210,
      "Ġpressure": 2211,
      "Ġrecomm": 2212,
      "Ġobserv": 2213,
      "ĠSouth": 2214,
      "Ġnature": 2215,
      "eter": 2216,
      "ivity": 2217,
      "ask": 2218,
      "Ġliving": 2219,
      "Ġthemselves": 2220,
      "ĠAmerica": 2221,
      "Ġreturn": 2222,
      "Ġsize": 2223,
      "Ġtot": 2224,
      "Ġann": 2225,
      "Ġintrodu": 2226,
      "ights": 2227,
      "Ġred": 2228,
      "ips": 2229,
      "fer": 2230,
      "âĢ¦": 2231,
      "plic": 2232,
      "13": 2233,
      "Ġassociated": 2234,
      "roll": 2235,
      "reme": 2236,
      "Ġprote": 2237,
      "ety": 2238,
      "Ġdest": 2239,
      "Ġtell": 2240,
      "Ġpolitical": 2241,
      "sh": 2242,
      "Ġhold": 2243,
      "Ġcannot": 2244,
      "Ġresearchers": 2245,
      "ĠAss": 2246,
      "14": 2247,
      "Ġanimals": 2248,
      "Ġstress": 2249,
      "Ġsimple": 2250,
      "Ġsound": 2251,
      "ibr": 2252,
      "ĠMay": 2253,
      "Ġpractice": 2254,
      "Ġpay": 2255,
      "ĠStud": 2256,
      "illed": 2257,
      "ensive": 2258,
      "Ġincreased": 2259,
      "utions": 2260,
      "eb": 2261,
      "oph": 2262,
      "aced": 2263,
      "Ġdoct": 2264,
      "Ġver": 2265,
      "Ġmarket": 2266,
      "like": 2267,
      "Ġthought": 2268,
      "Ġrelated": 2269,
      "org": 2270,
      "Ġopportun": 2271,
      "Ġactually": 2272,
      "epend": 2273,
      "Ġstates": 2274,
      "reg": 2275,
      "Ġunderstanding": 2276,
      "Ġrequired": 2277,
      "Ġweek": 2278,
      "Ġlay": 2279,
      "Ġmicro": 2280,
      "Ġstudent": 2281,
      "Ġadult": 2282,
      "Ġcomplex": 2283,
      "sequ": 2284,
      "iding": 2285,
      "Ġskin": 2286,
      "ĠRep": 2287,
      "Ġhistor": 2288,
      "Ġneeded": 2289,
      "Ch": 2290,
      "ĠAust": 2291,
      "ournal": 2292,
      "Ġquick": 2293,
      "Ġengine": 2294,
      "Ġability": 2295,
      "Ġrelationship": 2296,
      "Ġsal": 2297,
      "Ġ197": 2298,
      "Ġidea": 2299,
      "Ġhealthy": 2300,
      "Ġentire": 2301,
      "Ġfat": 2302,
      "Ġmaterials": 2303,
      "Ġfamil": 2304,
      "Ġcondition": 2305,
      "pro": 2306,
      "Ġglobal": 2307,
      "yn": 2308,
      "Ġmor": 2309,
      "Ġdog": 2310,
      "enn": 2311,
      "Ġmaint": 2312,
      "ĠMan": 2313,
      "aging": 2314,
      "erve": 2315,
      "Ġcomes": 2316,
      "Ġmoney": 2317,
      "ening": 2318,
      "Ġspe": 2319,
      "Ġpurp": 2320,
      "oon": 2321,
      "ging": 2322,
      "Ġitself": 2323,
      "Ġarg": 2324,
      "ober": 2325,
      "Ġ13": 2326,
      "Ġrights": 2327,
      "Ġdoc": 2328,
      "Ġprovides": 2329,
      "ai": 2330,
      "Ġalmost": 2331,
      "Ġeconomic": 2332,
      "itud": 2333,
      "aged": 2334,
      "ened": 2335,
      "Ġpublished": 2336,
      "Ġexperien": 2337,
      "Ġblack": 2338,
      "Ġ=": 2339,
      "artment": 2340,
      "Ġparts": 2341,
      ".)": 2342,
      "ĠSoc": 2343,
      "Ġport": 2344,
      "olic": 2345,
      "Ġansw": 2346,
      "eds": 2347,
      "ump": 2348,
      "Ġmodern": 2349,
      "Ġpath": 2350,
      "Ġfish": 2351,
      "acks": 2352,
      "go": 2353,
      "ush": 2354,
      "Ġexerc": 2355,
      "Ġoil": 2356,
      "oses": 2357,
      "Ġavoid": 2358,
      "ises": 2359,
      "rad": 2360,
      "Ġfactors": 2361,
      "ĠAct": 2362,
      "Ġnecessary": 2363,
      "ĠEarth": 2364,
      "ores": 2365,
      "chan": 2366,
      "vere": 2367,
      "Ġvers": 2368,
      "Ġservices": 2369,
      "ney": 2370,
      "Ġsoil": 2371,
      "Al": 2372,
      "To": 2373,
      "Ġsuff": 2374,
      "hib": 2375,
      "Ġassess": 2376,
      "lying": 2377,
      "Ġmanagement": 2378,
      "Ġtook": 2379,
      "uel": 2380,
      "Ġweight": 2381,
      "ĠYork": 2382,
      "itary": 2383,
      "ĠDep": 2384,
      "Ġparents": 2385,
      "Ġarch": 2386,
      "ma": 2387,
      "ply": 2388,
      "Ġhtt": 2389,
      "Ġ|": 2390,
      "Ġlink": 2391,
      "Ġhalf": 2392,
      "ences": 2393,
      "gest": 2394,
      "bo": 2395,
      "Ġmonths": 2396,
      "Ġcoll": 2397,
      "Ġreact": 2398,
      "Ġgas": 2399,
      "Ġmeasure": 2400,
      "Ġapproach": 2401,
      "urs": 2402,
      "yl": 2403,
      "Ġbar": 2404,
      "Ġcop": 2405,
      "Ġproduce": 2406,
      "Ġbegan": 2407,
      "ĠGu": 2408,
      "AS": 2409,
      "Ġcat": 2410,
      "ĠX": 2411,
      "Ġarr": 2412,
      "You": 2413,
      "rown": 2414,
      "Ġpriv": 2415,
      "utes": 2416,
      "ĠHis": 2417,
      "ume": 2418,
      "Ġsuper": 2419,
      "based": 2420,
      "Ġconduct": 2421,
      "Ġyet": 2422,
      "Ġever": 2423,
      "Ġpattern": 2424,
      "Wh": 2425,
      "Ġgreen": 2426,
      "):": 2427,
      "Ġsoft": 2428,
      "oll": 2429,
      "ese": 2430,
      "apan": 2431,
      "Ġclaim": 2432,
      "Ġpopular": 2433,
      "ĠComp": 2434,
      "Ġcomputer": 2435,
      "Ġanalysis": 2436,
      "cient": 2437,
      "izing": 2438,
      "Ġcolor": 2439,
      "irm": 2440,
      "ĠState": 2441,
      "Ġjob": 2442,
      "usion": 2443,
      "my": 2444,
      "Ġregion": 2445,
      "Ġ100": 2446,
      "ĠHist": 2447,
      "Ġtar": 2448,
      "onse": 2449,
      "Ġtherap": 2450,
      "Ġthroughout": 2451,
      "Ġliter": 2452,
      "iction": 2453,
      "Ġmedic": 2454,
      "Ġpersonal": 2455,
      "Ġstop": 2456,
      "Ġregard": 2457,
      "ĠDo": 2458,
      "ĠCont": 2459,
      "Ġrepl": 2460,
      "Ġchemical": 2461,
      "Ġfire": 2462,
      "abor": 2463,
      "Ġfeed": 2464,
      "Ġsense": 2465,
      "empt": 2466,
      "Ġfarm": 2467,
      "ections": 2468,
      "Ġaction": 2469,
      "Ġreading": 2470,
      "Ġsepar": 2471,
      "iddle": 2472,
      "nces": 2473,
      "mb": 2474,
      "ĠNe": 2475,
      "Ġincreasing": 2476,
      "Ġge": 2477,
      "Ġrul": 2478,
      "Ġemer": 2479,
      "ĠBritish": 2480,
      "Ġprinc": 2481,
      "Ġtaking": 2482,
      "Ġsleep": 2483,
      "het": 2484,
      "inter": 2485,
      "hold": 2486,
      "abit": 2487,
      "ĠJew": 2488,
      "Ġhours": 2489,
      "ĠAfter": 2490,
      "ccording": 2491,
      "uck": 2492,
      "Ġtalk": 2493,
      "Ġsociety": 2494,
      "Ġonline": 2495,
      "ĠCo": 2496,
      "icles": 2497,
      "ES": 2498,
      "gar": 2499,
      "Ġsam": 2500,
      "Ġindividuals": 2501,
      "Ġ196": 2502,
      "Ġut": 2503,
      "Ġwriting": 2504,
      "Ġrecent": 2505,
      "erous": 2506,
      "Ġbur": 2507,
      "Ġ50": 2508,
      "Ġcontent": 2509,
      "Ġcompany": 2510,
      "Ġprevious": 2511,
      "Ġbuilt": 2512,
      "Ġlonger": 2513,
      "igure": 2514,
      "ches": 2515,
      "Ġposition": 2516,
      "Ġshows": 2517,
      "pid": 2518,
      "estern": 2519,
      "ript": 2520,
      "Ġclean": 2521,
      "Ġbehavior": 2522,
      "Ġterms": 2523,
      "Ġinteract": 2524,
      "ze": 2525,
      "ively": 2526,
      "Ġservice": 2527,
      "ĠCanad": 2528,
      "emic": 2529,
      "\".": 2530,
      "AT": 2531,
      "yle": 2532,
      "Ġconc": 2533,
      "astic": 2534,
      "--": 2535,
      "Ġstructure": 2536,
      "Ġsix": 2537,
      "Ġtotal": 2538,
      "Ġmatter": 2539,
      "itation": 2540,
      "Ġenvironmental": 2541,
      "Ġetc": 2542,
      "Ġtraining": 2543,
      "Ġthing": 2544,
      "Ġinj": 2545,
      "wh": 2546,
      "anced": 2547,
      "Ġindustry": 2548,
      "Ġla": 2549,
      "Ġschools": 2550,
      "Ġsurv": 2551,
      "minist": 2552,
      "Ġheav": 2553,
      "Ġcontain": 2554,
      "Ġsex": 2555,
      "Ġcaused": 2556,
      "Ġdisord": 2557,
      "iment": 2558,
      "ows": 2559,
      "ulations": 2560,
      "lor": 2561,
      "Ġprovided": 2562,
      "Ġcheck": 2563,
      "ĠPe": 2564,
      "Ġcontact": 2565,
      "Ġbreak": 2566,
      "Ã©": 2567,
      "aff": 2568,
      "fully": 2569,
      "Ġheat": 2570,
      "ene": 2571,
      "ĠWhile": 2572,
      "Ġmeaning": 2573,
      "Ġlives": 2574,
      "Ġeasy": 2575,
      "Ġbring": 2576,
      "Ġsat": 2577,
      "ns": 2578,
      "Ġdiagn": 2579,
      "reng": 2580,
      "Ġbenefits": 2581,
      "Ġ25": 2582,
      "lands": 2583,
      "ricult": 2584,
      "ĠSchool": 2585,
      "Ġtravel": 2586,
      "ĠJapan": 2587,
      "abet": 2588,
      "ropri": 2589,
      "Ġdesigned": 2590,
      "Ġtrue": 2591,
      "Ġtemperature": 2592,
      "aily": 2593,
      "istance": 2594,
      "Ġcauses": 2595,
      "Ġvide": 2596,
      "Ġshown": 2597,
      "Ġmusic": 2598,
      "arr": 2599,
      "ederal": 2600,
      "Ġmethods": 2601,
      "Ġaccept": 2602,
      "ronic": 2603,
      "inary": 2604,
      "ister": 2605,
      "rought": 2606,
      "ĠEm": 2607,
      "lt": 2608,
      "Ġincludes": 2609,
      "Ġvariety": 2610,
      "AR": 2611,
      "ĠResearch": 2612,
      "Ġce": 2613,
      "ster": 2614,
      "ĠNo": 2615,
      "mon": 2616,
      "Ġearth": 2617,
      "Ġbacter": 2618,
      "hood": 2619,
      "Ġfru": 2620,
      "ĠII": 2621,
      "vey": 2622,
      "Ġfem": 2623,
      "Ġviol": 2624,
      "asc": 2625,
      "Ġregular": 2626,
      "Ġspread": 2627,
      "Ġbelieve": 2628,
      "Ġsafe": 2629,
      "Ġpositive": 2630,
      "imately": 2631,
      "aving": 2632,
      "atives": 2633,
      "Ġmach": 2634,
      "Ġ194": 2635,
      "Ġvari": 2636,
      "Ġrev": 2637,
      "ched": 2638,
      "Ġprograms": 2639,
      "Ġsimply": 2640,
      "Ġrelative": 2641,
      "Ġ11": 2642,
      "Ġwild": 2643,
      "Ġeat": 2644,
      "light": 2645,
      "Ġlove": 2646,
      "istics": 2647,
      "Ġculture": 2648,
      "Ġsometimes": 2649,
      "aling": 2650,
      "Ġpage": 2651,
      "Ġaverage": 2652,
      "Ġlif": 2653,
      "lex": 2654,
      "dom": 2655,
      "Ġgreater": 2656,
      "Ġmechan": 2657,
      "aries": 2658,
      "rior": 2659,
      "ĠÂ": 2660,
      "Ġmovement": 2661,
      "Ġled": 2662,
      "Ġissue": 2663,
      "Ġstandard": 2664,
      "Ġprec": 2665,
      "Ġtarget": 2666,
      "ID": 2667,
      "Ġthreat": 2668,
      "ĠInstit": 2669,
      "ĠSu": 2670,
      "Ġsubst": 2671,
      "rast": 2672,
      "Ġorigin": 2673,
      "Ġste": 2674,
      "Ġcarbon": 2675,
      "Ġdeep": 2676,
      "ufact": 2677,
      "ners": 2678,
      "Ġexc": 2679,
      "ades": 2680,
      "duc": 2681,
      "Ġslow": 2682,
      "rench": 2683,
      "amed": 2684,
      "Ġuses": 2685,
      "Ġhelps": 2686,
      "ĠPar": 2687,
      "Ġresponse": 2688,
      "Ġrespect": 2689,
      "osition": 2690,
      "Ġinvolved": 2691,
      "ĠIndia": 2692,
      "Ġdoing": 2693,
      "know": 2694,
      "Ġwritten": 2695,
      "aches": 2696,
      "new": 2697,
      "ĠKing": 2698,
      "Ġdamage": 2699,
      "Ġencoura": 2700,
      "Ġevents": 2701,
      "eration": 2702,
      "ucle": 2703,
      "Ġfoods": 2704,
      "Ġsources": 2705,
      "ĠSec": 2706,
      "Ġface": 2707,
      "Ġoriginal": 2708,
      "Ġdemon": 2709,
      "Ġreported": 2710,
      "verse": 2711,
      "But": 2712,
      "ĠPres": 2713,
      "Ġcompet": 2714,
      "Ġidentify": 2715,
      "Ġpict": 2716,
      "arily": 2717,
      "Ġcompan": 2718,
      "Ġscientists": 2719,
      "Ġremov": 2720,
      "Ġforms": 2721,
      "ban": 2722,
      "Ġimage": 2723,
      "uge": 2724,
      "rand": 2725,
      "ctions": 2726,
      "Ġple": 2727,
      "Ġpoll": 2728,
      "oor": 2729,
      "ength": 2730,
      "elling": 2731,
      "Ġpsych": 2732,
      "ief": 2733,
      "Ġoutside": 2734,
      "Ġreview": 2735,
      "Ġstreng": 2736,
      "Ġlack": 2737,
      "Ġnormal": 2738,
      "Ġemb": 2739,
      "Ġparticularly": 2740,
      "ender": 2741,
      "Ġpoor": 2742,
      "Ġrefer": 2743,
      "Ġbasic": 2744,
      "oles": 2745,
      "Ġimplement": 2746,
      "Ġinteg": 2747,
      "ops": 2748,
      "Ġcamp": 2749,
      "umb": 2750,
      "ervation": 2751,
      "Ġshare": 2752,
      "Ġdeveloping": 2753,
      "ials": 2754,
      "IN": 2755,
      "Ġbal": 2756,
      "Ġattention": 2757,
      "Ġforest": 2758,
      "Ġserious": 2759,
      "Ġforce": 2760,
      "22": 2761,
      "Ġwebs": 2762,
      "Ġwood": 2763,
      "ĠAustral": 2764,
      "Ġanimal": 2765,
      "ĠPer": 2766,
      "ĠMin": 2767,
      "Ġcompon": 2768,
      "Ġmedia": 2769,
      "Ġattempt": 2770,
      "Ġessential": 2771,
      "Ġsust": 2772,
      "Ġdeb": 2773,
      "room": 2774,
      "ached": 2775,
      "Ġensure": 2776,
      "Ġappl": 2777,
      "Ġproduced": 2778,
      "Ġteachers": 2779,
      "Ġideas": 2780,
      "ming": 2781,
      "ĠScience": 2782,
      "Ġfeet": 2783,
      "isions": 2784,
      "Ġgenerally": 2785,
      "Ġharm": 2786,
      "Ġextreme": 2787,
      "rim": 2788,
      "Ġsqu": 2789,
      "Ġcust": 2790,
      "Ġlate": 2791,
      "Ġemot": 2792,
      "bor": 2793,
      "Ġgrowing": 2794,
      "Ġtax": 2795,
      "Ġaff": 2796,
      "Ġvisit": 2797,
      "Ġ--": 2798,
      "Ġdispl": 2799,
      "Ġcoun": 2800,
      "ĠWill": 2801,
      "rated": 2802,
      "Ġattack": 2803,
      "Ġelectric": 2804,
      "uth": 2805,
      "idge": 2806,
      "Ġcorrect": 2807,
      "irit": 2808,
      "Ġconsist": 2809,
      "Ġlog": 2810,
      "Ġox": 2811,
      "ls": 2812,
      "Ġaware": 2813,
      "Ġchalleng": 2814,
      "Ġnumbers": 2815,
      "IS": 2816,
      "ĠChina": 2817,
      "Ġvacc": 2818,
      "Ġseries": 2819,
      "Ġcontinue": 2820,
      "ĠApp": 2821,
      "Ġlat": 2822,
      "Ġdraw": 2823,
      "oly": 2824,
      "ĠMe": 2825,
      "set": 2826,
      "Ġhyd": 2827,
      "issions": 2828,
      "osure": 2829,
      "Ġap": 2830,
      "Ġpatient": 2831,
      "ĠMany": 2832,
      "Ġcolon": 2833,
      "Ġincluded": 2834,
      "osing": 2835,
      "Ġprobably": 2836,
      "ĠEd": 2837,
      "Ġnetwork": 2838,
      "Ġgetting": 2839,
      "Ġvirus": 2840,
      "ĠCO": 2841,
      "Ġsafety": 2842,
      "ius": 2843,
      "Ġtakes": 2844,
      "Ġmess": 2845,
      "Ġselect": 2846,
      "ecause": 2847,
      "ana": 2848,
      "Ġveget": 2849,
      "cies": 2850,
      "Ġ/": 2851,
      "fect": 2852,
      "Ġsomeone": 2853,
      "Ġexpress": 2854,
      "Ġir": 2855,
      "Ġdefin": 2856,
      "25": 2857,
      "Ġmanufact": 2858,
      "Ġdoesn": 2859,
      "ems": 2860,
      "ĠQu": 2861,
      "ribution": 2862,
      "Ġnight": 2863,
      "Ġeasily": 2864,
      "Ġtherefore": 2865,
      "Ġindepend": 2866,
      "Ġdou": 2867,
      "Ġcross": 2868,
      "ĠCount": 2869,
      "Ġcit": 2870,
      "ino": 2871,
      "Ġkids": 2872,
      "imum": 2873,
      "Ġago": 2874,
      "raft": 2875,
      "Ġ24": 2876,
      "Ġcommit": 2877,
      "Ġmother": 2878,
      "Ġprep": 2879,
      "Ġthus": 2880,
      "Ġsea": 2881,
      "Ġlooking": 2882,
      "ĠInt": 2883,
      "Ġfinanc": 2884,
      "ads": 2885,
      "Ġspeed": 2886,
      "anks": 2887,
      "ension": 2888,
      "inks": 2889,
      "Ġmagn": 2890,
      "hel": 2891,
      "Ġinternational": 2892,
      "Ġprint": 2893,
      "Ġsou": 2894,
      "where": 2895,
      "haps": 2896,
      "Ġquite": 2897,
      "ext": 2898,
      "Ġfa": 2899,
      "ties": 2900,
      "Ġinvestig": 2901,
      "cell": 2902,
      "ha": 2903,
      "ĠJan": 2904,
      "ground": 2905,
      "Ġdaily": 2906,
      "Ġconcent": 2907,
      "vention": 2908,
      "Ġallows": 2909,
      "Ġtraditional": 2910,
      "yr": 2911,
      "ography": 2912,
      "erg": 2913,
      "ying": 2914,
      "Ġpolicy": 2915,
      "asons": 2916,
      "Ġvit": 2917,
      "erson": 2918,
      "Ġtur": 2919,
      "Ġtiss": 2920,
      "On": 2921,
      "Ġinstead": 2922,
      "Ġwall": 2923,
      "ĠCenter": 2924,
      "Ġmental": 2925,
      "ĠMore": 2926,
      "ĠBo": 2927,
      "Ġcover": 2928,
      "ĠPre": 2929,
      "Ġeth": 2930,
      "Ġdang": 2931,
      "Ġtown": 2932,
      "Ġleaders": 2933,
      "Ġappropri": 2934,
      "oes": 2935,
      "Ġtree": 2936,
      "uary": 2937,
      "Ġdetermine": 2938,
      "Ġperformance": 2939,
      "Ġdifference": 2940,
      "Ġstarted": 2941,
      "www": 2942,
      "ĠYour": 2943,
      "Ġful": 2944,
      "ĠAg": 2945,
      "Ġprimary": 2946,
      "Ġcommunities": 2947,
      "ington": 2948,
      "Ġdiseases": 2949,
      "Ġadded": 2950,
      "overy": 2951,
      "Ġfav": 2952,
      "ĠAug": 2953,
      "rew": 2954,
      "abetes": 2955,
      "ĠEduc": 2956,
      "Ġdiv": 2957,
      "Ġearl": 2958,
      "Ġestablished": 2959,
      "na": 2960,
      "Ġpoints": 2961,
      "Ġtheory": 2962,
      "cil": 2963,
      "Ġwarm": 2964,
      "iforn": 2965,
      "Ġbooks": 2966,
      "ror": 2967,
      "Ġsil": 2968,
      "Ġthous": 2969,
      "Ġprogress": 2970,
      "Ġtools": 2971,
      "Ġbab": 2972,
      "Ġestim": 2973,
      "iot": 2974,
      "ĠPart": 2975,
      "Ġeval": 2976,
      "ancy": 2977,
      "ĠJu": 2978,
      "ĠIndian": 2979,
      "Ġheld": 2980,
      "Ġi": 2981,
      "Ġachieve": 2982,
      "Ġlarger": 2983,
      "Ġreflect": 2984,
      "Ġunique": 2985,
      "Ġinside": 2986,
      "itude": 2987,
      "Ġnation": 2988,
      "Ġquickly": 2989,
      "Ġmultiple": 2990,
      "Ġinstit": 2991,
      "rate": 2992,
      "ceed": 2993,
      "orks": 2994,
      "ĠCons": 2995,
      "Ġ40": 2996,
      "Ġhumans": 2997,
      "Ġthird": 2998,
      "Ġdirectly": 2999,
      "Ġcivil": 3000,
      "Ġunc": 3001,
      "AN": 3002,
      "ĠFrench": 3003,
      "ĠEuropean": 3004,
      "Ġdecre": 3005,
      "Ġcompared": 3006,
      "rs": 3007,
      "Ġaltern": 3008,
      "Ġcapt": 3009,
      "ĠMost": 3010,
      "Ġprotein": 3011,
      "Ġsold": 3012,
      "OR": 3013,
      "iency": 3014,
      "Ġtend": 3015,
      "Ġdrink": 3016,
      "Ġoffer": 3017,
      "Ġmilitary": 3018,
      "Ġscientific": 3019,
      "Ġhighly": 3020,
      "Ġreve": 3021,
      "rie": 3022,
      "Ġcompanies": 3023,
      "ĠAc": 3024,
      "Ġspeak": 3025,
      "Ġtrees": 3026,
      "Ġimmedi": 3027,
      "ifornia": 3028,
      "Ġfront": 3029,
      "Ġdemonstr": 3030,
      "Ġeye": 3031,
      "ounds": 3032,
      "undred": 3033,
      "ĠJes": 3034,
      "Ġbirth": 3035,
      "ĠCom": 3036,
      "Ġanswer": 3037,
      "ille": 3038,
      "elt": 3039,
      "joy": 3040,
      "Ġproced": 3041,
      "Ġsevere": 3042,
      "Ġfoot": 3043,
      "Ġrout": 3044,
      "ellow": 3045,
      "Ġaspect": 3046,
      "ĠGl": 3047,
      "Ġhost": 3048,
      "Ġbit": 3049,
      "son": 3050,
      "useum": 3051,
      "Ġwent": 3052,
      "ON": 3053,
      "ĠEl": 3054,
      "ift": 3055,
      "Ġdocument": 3056,
      "Ġaud": 3057,
      "Ġsolar": 3058,
      "Ġfamilies": 3059,
      "Ġdry": 3060,
      "Ġbehind": 3061,
      "Ġacid": 3062,
      "ĠInstitute": 3063,
      "Ġalthough": 3064,
      "Ġsoon": 3065,
      "Ġadditional": 3066,
      "Ġextra": 3067,
      "Ġexercise": 3068,
      "Ġseems": 3069,
      "term": 3070,
      "Ġactive": 3071,
      "Ġnegative": 3072,
      "iques": 3073,
      "pe": 3074,
      "uman": 3075,
      "ĠDepartment": 3076,
      "Ġinfection": 3077,
      "Ġtri": 3078,
      "ĠGerman": 3079,
      "One": 3080,
      "ĠArt": 3081,
      "Ġuseful": 3082,
      "Ġhor": 3083,
      "Ġcentral": 3084,
      "Ġsecurity": 3085,
      "Ġbad": 3086,
      "ĠWest": 3087,
      "Ġtransport": 3088,
      "nov": 3089,
      "Ġlabor": 3090,
      "pril": 3091,
      "Ġshall": 3092,
      "Ġcritical": 3093,
      "vant": 3094,
      "ulate": 3095,
      "iers": 3096,
      "Ġbroad": 3097,
      "Ġfram": 3098,
      "Ġbeginning": 3099,
      "Ġgard": 3100,
      "Ġwalk": 3101,
      "uries": 3102,
      "thern": 3103,
      "Ġhar": 3104,
      "Ġvideo": 3105,
      "Ġprior": 3106,
      "den": 3107,
      "____": 3108,
      "Ġcard": 3109,
      "Ġsupply": 3110,
      "ĠGree": 3111,
      "isms": 3112,
      "23": 3113,
      "Ġtowards": 3114,
      "ĠBr": 3115,
      "Ġhttp": 3116,
      "Ġsection": 3117,
      "Ġelements": 3118,
      "yond": 3119,
      "hern": 3120,
      "Ġleading": 3121,
      "rogen": 3122,
      "Ġclin": 3123,
      "ĠCalifornia": 3124,
      "Ġ2010": 3125,
      "Ġobt": 3126,
      "gency": 3127,
      "ĠSm": 3128,
      "omet": 3129,
      "ilos": 3130,
      "Ġteaching": 3131,
      "Ġsearch": 3132,
      "ĠChar": 3133,
      "21": 3134,
      "Ġstay": 3135,
      "Ġpurpose": 3136,
      "ĠOf": 3137,
      "ĠMarch": 3138,
      "ĠChild": 3139,
      "ĠNot": 3140,
      "Ġlimited": 3141,
      "Ġaim": 3142,
      "oming": 3143,
      "formation": 3144,
      "Ġ,": 3145,
      "Ġsituation": 3146,
      "Ġsus": 3147,
      "cean": 3148,
      "So": 3149,
      "olar": 3150,
      "Ġcontains": 3151,
      "coh": 3152,
      "Ġanaly": 3153,
      "ĠRuss": 3154,
      "Ġbase": 3155,
      "ĠUs": 3156,
      "Ġquant": 3157,
      "ĠRec": 3158,
      "mar": 3159,
      "iter": 3160,
      "He": 3161,
      "Ġminutes": 3162,
      "ĠOther": 3163,
      "iber": 3164,
      "Ġfeatures": 3165,
      "Ġexpect": 3166,
      "Ġhabit": 3167,
      "Ġaccur": 3168,
      "Ġlost": 3169,
      "oring": 3170,
      "âĢ¢": 3171,
      "Ġwhose": 3172,
      "ĠAlthough": 3173,
      "ĠAfrica": 3174,
      "rition": 3175,
      "Ġcontribut": 3176,
      "lation": 3177,
      "ĠHar": 3178,
      "Ġinterp": 3179,
      "Ġdoctor": 3180,
      "IC": 3181,
      "Ġstra": 3182,
      "Ġmount": 3183,
      "Ġancient": 3184,
      "Ġcustom": 3185,
      "Ġmom": 3186,
      "Ġ2012": 3187,
      "Ġdecl": 3188,
      "Ġsoftware": 3189,
      "Ġhot": 3190,
      "ĠOct": 3191,
      "Ġhands": 3192,
      "ologies": 3193,
      "40": 3194,
      "itis": 3195,
      "ĠJune": 3196,
      "come": 3197,
      "rote": 3198,
      "Ġvalues": 3199,
      "Ġbrought": 3200,
      "Ġnucle": 3201,
      "Ġelse": 3202,
      "ĠInternational": 3203,
      "Ġstri": 3204,
      "Ġdescribed": 3205,
      "Ġones": 3206,
      "fort": 3207,
      "Ġfight": 3208,
      "Ġthinking": 3209,
      "ĠHer": 3210,
      "ĠAnt": 3211,
      "And": 3212,
      "aly": 3213,
      "Ġprotection": 3214,
      "Ġexact": 3215,
      "ĠMus": 3216,
      "Ġblock": 3217,
      "ĠAfrican": 3218,
      "Ġenjoy": 3219,
      "Ġdark": 3220,
      "orthern": 3221,
      "Ġimages": 3222,
      "Ġhundred": 3223,
      "âĢĿ.": 3224,
      "Ġcred": 3225,
      "lection": 3226,
      "Ġfast": 3227,
      "Ġjo": 3228,
      "ĠHistory": 3229,
      "Ġstrateg": 3230,
      "inese": 3231,
      "ription": 3232,
      "Ġadminist": 3233,
      "Ġcapital": 3234,
      "Ġnews": 3235,
      "Ġrequires": 3236,
      "gn": 3237,
      "sect": 3238,
      "uk": 3239,
      "ĠHere": 3240,
      "Ġinfluence": 3241,
      "Ġpack": 3242,
      "Ġnorth": 3243,
      "Ġfinancial": 3244,
      "Ġwrite": 3245,
      "Ġsustain": 3246,
      "imin": 3247,
      "Ġgoal": 3248,
      "Ġgot": 3249,
      "Ġ2011": 3250,
      "used": 3251,
      "equ": 3252,
      "bol": 3253,
      "Ġdecision": 3254,
      "Ġcapac": 3255,
      "inct": 3256,
      "ĠSch": 3257,
      "wise": 3258,
      "istry": 3259,
      "ĠRiver": 3260,
      "Ġlength": 3261,
      "Ġreceived": 3262,
      "Ġlargest": 3263,
      "Ġlaws": 3264,
      "Ġagricult": 3265,
      "hens": 3266,
      "hest": 3267,
      "Ġwa": 3268,
      "Ġapplication": 3269,
      "ĠTra": 3270,
      "Ġadults": 3271,
      "Ġcarry": 3272,
      "Ġwaste": 3273,
      "Ġmill": 3274,
      "Ġgame": 3275,
      "ĠReg": 3276,
      "ĠCor": 3277,
      "itch": 3278,
      "ĠAugust": 3279,
      "Ġlocated": 3280,
      "Ġbecomes": 3281,
      "Ġdisp": 3282,
      "Ġprivate": 3283,
      "Ġleaves": 3284,
      "Ġep": 3285,
      "Ġrates": 3286,
      "ields": 3287,
      "Ġbacteria": 3288,
      "Ġdemand": 3289,
      "Ġagree": 3290,
      "Ġexcept": 3291,
      "cks": 3292,
      "ĠChristian": 3293,
      "pper": 3294,
      "ĠBar": 3295,
      "Ġmemory": 3296,
      "ĠJesus": 3297,
      "rael": 3298,
      "ĠMon": 3299,
      "Ġadop": 3300,
      "Ġang": 3301,
      "ĠSept": 3302,
      "Ġsn": 3303,
      "Ġord": 3304,
      "lim": 3305,
      "Ġwebsite": 3306,
      "att": 3307,
      "Ġlines": 3308,
      "Ġimportance": 3309,
      "Ġprojects": 3310,
      "izations": 3311,
      "Ġweeks": 3312,
      "rag": 3313,
      "Ġcosts": 3314,
      "Ġreligious": 3315,
      "Ġjud": 3316,
      "con": 3317,
      "ĠFirst": 3318,
      "Ġplaces": 3319,
      "ĠKe": 3320,
      "ĠTw": 3321,
      "ulated": 3322,
      "see": 3323,
      "ibrary": 3324,
      "iles": 3325,
      "Ġseason": 3326,
      "Ġfit": 3327,
      "Ġworkers": 3328,
      "Ġnearly": 3329,
      "mission": 3330,
      "Ġmention": 3331,
      "odies": 3332,
      "bit": 3333,
      "eal": 3334,
      "vest": 3335,
      "Ġtypically": 3336,
      "med": 3337,
      "estic": 3338,
      "cial": 3339,
      "imal": 3340,
      "ĠDav": 3341,
      "Ġdevices": 3342,
      "AC": 3343,
      "Ġsites": 3344,
      "Ġrare": 3345,
      "Ġ21": 3346,
      "Ġegg": 3347,
      "Ġbeaut": 3348,
      "Ġprocesses": 3349,
      "Ġreach": 3350,
      "Ġmole": 3351,
      "60": 3352,
      "Ġult": 3353,
      "Ġestablish": 3354,
      "Ġappropriate": 3355,
      "Ġsolution": 3356,
      "uro": 3357,
      "ipment": 3358,
      "Ġsouth": 3359,
      "Ġremain": 3360,
      "Ġfather": 3361,
      "Ġveh": 3362,
      "Ġtold": 3363,
      "Ġstru": 3364,
      "Ġfriends": 3365,
      "80": 3366,
      "Ġdeal": 3367,
      "Ġsurround": 3368,
      "Ġefforts": 3369,
      "Ġtechniques": 3370,
      "Ġborn": 3371,
      "arian": 3372,
      "cohol": 3373,
      "Ġcommand": 3374,
      "Ġtests": 3375,
      "idents": 3376,
      "Ġremains": 3377,
      "ĠServ": 3378,
      "Ġteacher": 3379,
      "Ġx": 3380,
      "life": 3381,
      "Ġtable": 3382,
      "iece": 3383,
      "EN": 3384,
      "IV": 3385,
      "ĠMc": 3386,
      "ype": 3387,
      "At": 3388,
      "Ġcommunication": 3389,
      "atur": 3390,
      "cles": 3391,
      "entially": 3392,
      "Ġcitiz": 3393,
      "ĠApril": 3394,
      "itect": 3395,
      "199": 3396,
      "year": 3397,
      "Ġbasis": 3398,
      "Ġrapid": 3399,
      "Ġsugar": 3400,
      "Ġgives": 3401,
      "ĠWash": 3402,
      "ĠJuly": 3403,
      "Ġsaw": 3404,
      "Ġhimself": 3405,
      "ĠFrom": 3406,
      "Ġproperty": 3407,
      "Ġadj": 3408,
      "back": 3409,
      "Ġcreating": 3410,
      "izes": 3411,
      "oke": 3412,
      "ĠAmericans": 3413,
      "Ġadapt": 3414,
      "Ġvict": 3415,
      "Ġcool": 3416,
      "iar": 3417,
      "aid": 3418,
      "Ġdied": 3419,
      "Ġrespond": 3420,
      "ogen": 3421,
      "resh": 3422,
      "Ġdead": 3423,
      "'re": 3424,
      "ĠMy": 3425,
      "Ġcultural": 3426,
      "Ġeating": 3427,
      "ĠSw": 3428,
      "Ġanything": 3429,
      "alled": 3430,
      "rig": 3431,
      "Ġadvant": 3432,
      "ĠPresident": 3433,
      "Ġeverything": 3434,
      "ĠPress": 3435,
      "ĠProg": 3436,
      "uous": 3437,
      "Ġcrop": 3438,
      "uments": 3439,
      "Ġweb": 3440,
      "Ġcenter": 3441,
      "aul": 3442,
      "Ġpan": 3443,
      "Ġroom": 3444,
      "ipl": 3445,
      "ĠAssoci": 3446,
      "Ġsummer": 3447,
      "These": 3448,
      "24": 3449,
      "Ġ2009": 3450,
      "ama": 3451,
      "ira": 3452,
      "Ġnothing": 3453,
      "ĠDay": 3454,
      "Ġeyes": 3455,
      "Ġtesting": 3456,
      "ED": 3457,
      "Ġhope": 3458,
      "ĠCanada": 3459,
      "ran": 3460,
      "ĠEngland": 3461,
      "oud": 3462,
      "Ġapplications": 3463,
      "Ġder": 3464,
      "Ġresponsible": 3465,
      "Ġfuel": 3466,
      "Ġhous": 3467,
      "ondon": 3468,
      "Ġtherapy": 3469,
      "Ġmonitor": 3470,
      "ixed": 3471,
      "ĠChinese": 3472,
      "king": 3473,
      "aught": 3474,
      "Ġcoast": 3475,
      "Ġconstruction": 3476,
      "Ġmiles": 3477,
      "cember": 3478,
      "Ġteeth": 3479,
      "water": 3480,
      "Ġscreen": 3481,
      "Ġstage": 3482,
      "Ġbott": 3483,
      "Ġcode": 3484,
      "ding": 3485,
      "Ġsequ": 3486,
      "Ġimag": 3487,
      "Ġreasons": 3488,
      "Ġdevice": 3489,
      "Ġfollowed": 3490,
      "ĠCong": 3491,
      "ĠGovern": 3492,
      "Ġdepend": 3493,
      "Ġfinal": 3494,
      "Ġson": 3495,
      "Ġtrade": 3496,
      "Ġbenefit": 3497,
      "Ġspirit": 3498,
      "ĠEducation": 3499,
      "Ġpractices": 3500,
      "Ġcou": 3501,
      "Ġbehavi": 3502,
      "Ġasked": 3503,
      "sec": 3504,
      "ĠPark": 3505,
      "Ġconflic": 3506,
      "Ġrecently": 3507,
      "ĠIsrael": 3508,
      "Ġanti": 3509,
      "Ġice": 3510,
      "Ġforces": 3511,
      "Ġcele": 3512,
      "Ġbreat": 3513,
      "IT": 3514,
      "ocol": 3515,
      "Ġobjects": 3516,
      "Ġdigital": 3517,
      "ĠWilliam": 3518,
      "oe": 3519,
      "ham": 3520,
      "Ġdiabetes": 3521,
      "Ġautom": 3522,
      "Ġbeyond": 3523,
      "Ġexamples": 3524,
      "illing": 3525,
      "head": 3526,
      "Ġconsequ": 3527,
      "ought": 3528,
      "Ġhyp": 3529,
      "unch": 3530,
      "Ġvisual": 3531,
      "Ġcontroll": 3532,
      "Ġgradu": 3533,
      "Ġmiddle": 3534,
      "Ġexpected": 3535,
      "Ġreceive": 3536,
      "Ġchoose": 3537,
      "Ġconnect": 3538,
      "Ġcam": 3539,
      "Ġtit": 3540,
      "ĠCity": 3541,
      "Ġaffected": 3542,
      "Ġcalcul": 3543,
      "Ġconstit": 3544,
      "itable": 3545,
      "Ġking": 3546,
      "Ġolder": 3547,
      "ribute": 3548,
      "lamm": 3549,
      "ellig": 3550,
      "Ġdate": 3551,
      "exic": 3552,
      "Ġ2008": 3553,
      "mosp": 3554,
      "ford": 3555,
      "ĠEc": 3556,
      "iples": 3557,
      "Ġcra": 3558,
      "Ġopportunity": 3559,
      "Ġlegal": 3560,
      "tery": 3561,
      "ony": 3562,
      "omb": 3563,
      "Ġinsp": 3564,
      "apter": 3565,
      "Ġ2013": 3566,
      "Ġten": 3567,
      "Ġyourself": 3568,
      "Ġfear": 3569,
      "Ġpen": 3570,
      "Ġwoman": 3571,
      "ari": 3572,
      "Ġscale": 3573,
      "Ġcold": 3574,
      "Ġmid": 3575,
      "Ġcommunic": 3576,
      "ĠChurch": 3577,
      "Ġstandards": 3578,
      "book": 3579,
      "ĠTechn": 3580,
      "Ġrain": 3581,
      "anish": 3582,
      "By": 3583,
      "Ġprofessional": 3584,
      "Ġund": 3585,
      "ĠGreat": 3586,
      "ests": 3587,
      "Ġsmaller": 3588,
      "Ġsett": 3589,
      "strial": 3590,
      "time": 3591,
      "Ġfederal": 3592,
      "Ġorganization": 3593,
      "ĠInc": 3594,
      "Ex": 3595,
      "uff": 3596,
      "Ġ:": 3597,
      "Ġequipment": 3598,
      "Ġeveryone": 3599,
      "With": 3600,
      "Ġproviding": 3601,
      "bur": 3602,
      "ula": 3603,
      "lam": 3604,
      "airs": 3605,
      "Ġmodels": 3606,
      "ĠFeb": 3607,
      "ovember": 3608,
      "Ġeconomy": 3609,
      "Ġoccurs": 3610,
      "Ġalone": 3611,
      "ĠJanuary": 3612,
      "ĠLear": 3613,
      "ocr": 3614,
      "Ġlocation": 3615,
      "Ġshape": 3616,
      "Ġcurrently": 3617,
      "PA": 3618,
      "ĠWashington": 3619,
      "Ġrecommend": 3620,
      "ĠEven": 3621,
      "Ġcompletely": 3622,
      "ĠBi": 3623,
      "ĠSystem": 3624,
      ");": 3625,
      "Ġwrote": 3626,
      "edia": 3627,
      "Ġbeg": 3628,
      "Ġvia": 3629,
      "ica": 3630,
      "Ġexposure": 3631,
      "Ġtrying": 3632,
      "Ġusers": 3633,
      "Ġinteresting": 3634,
      "enge": 3635,
      "While": 3636,
      "Ġgoes": 3637,
      "ĠOur": 3638,
      "Ġrules": 3639,
      "Ġbul": 3640,
      "Ġfile": 3641,
      "lin": 3642,
      "Ġrock": 3643,
      "men": 3644,
      "Ġsuccessful": 3645,
      "Ġinstru": 3646,
      "Ġuser": 3647,
      "ospital": 3648,
      "ĠJournal": 3649,
      "Ġwon": 3650,
      "Ġpurch": 3651,
      "rees": 3652,
      "ĠRet": 3653,
      "ĠSeptember": 3654,
      "Ġcru": 3655,
      "vert": 3656,
      "Ġhon": 3657,
      "can": 3658,
      "Ġeffort": 3659,
      "ĠAccording": 3660,
      "Ġdegree": 3661,
      "Ġmeasures": 3662,
      "Ġpoly": 3663,
      "ev": 3664,
      "Ġbirds": 3665,
      "Ġswe": 3666,
      "Ġstrength": 3667,
      "Ġcommonly": 3668,
      "Ġrise": 3669,
      "Ġpet": 3670,
      "load": 3671,
      "Ġleave": 3672,
      "Ġdestro": 3673,
      "Ġcollection": 3674,
      "ĠThen": 3675,
      "Ġmember": 3676,
      "Ġformer": 3677,
      "ĠCounty": 3678,
      "Ġrob": 3679,
      "ros": 3680,
      "aur": 3681,
      "Ġdrugs": 3682,
      "Ġmaintain": 3683,
      "ĠDevelop": 3684,
      "Ġnamed": 3685,
      "Ġapprox": 3686,
      "Ġplanet": 3687,
      "ĠOctober": 3688,
      "Ġweather": 3689,
      "Ġconstant": 3690,
      "ĠTrans": 3691,
      "mitted": 3692,
      "Ġcateg": 3693,
      "ĠDis": 3694,
      "Ġ23": 3695,
      "Ġoverall": 3696,
      "iest": 3697,
      "Ġdifferences": 3698,
      "Ġearlier": 3699,
      "Ġpregn": 3700,
      "Ġplaced": 3701,
      "Ġallowed": 3702,
      "ĠCommun": 3703,
      "Ġisn": 3704,
      "wide": 3705,
      "ocks": 3706,
      "Ġelectr": 3707,
      "oday": 3708,
      "ĠDNA": 3709,
      "off": 3710,
      "ĠEast": 3711,
      "Ġenh": 3712,
      "Ġreduced": 3713,
      "ĠPol": 3714,
      "ĠRed": 3715,
      "Ġoccup": 3716,
      "Ġsteps": 3717,
      "Ġwinter": 3718,
      "udd": 3719,
      "Ġgenetic": 3720,
      "edom": 3721,
      "ĠRoman": 3722,
      "ĠVir": 3723,
      "ĠSim": 3724,
      "Ġperfect": 3725,
      "Ġdiscovered": 3726,
      "Ġneigh": 3727,
      "Ġchurch": 3728,
      "ĠLaw": 3729,
      "Ġrich": 3730,
      "ĠLondon": 3731,
      "Ġapplied": 3732,
      "Ġcoming": 3733,
      "ingu": 3734,
      "su": 3735,
      "Ġfruit": 3736,
      "Ġcommerc": 3737,
      "Ġbillion": 3738,
      "Ġeight": 3739,
      "ĠMexic": 3740,
      "ibly": 3741,
      "Ġcontinued": 3742,
      "ĠHigh": 3743,
      "Ġ193": 3744,
      "Ġpowerful": 3745,
      "Ġidentified": 3746,
      "Ġteach": 3747,
      "rec": 3748,
      "Ġwond": 3749,
      "Ġdisplay": 3750,
      "ara": 3751,
      "ĠDecember": 3752,
      "Ġ60": 3753,
      "ĠBlack": 3754,
      "ensity": 3755,
      "Ġenter": 3756,
      "Ġmajority": 3757,
      "ĠIS": 3758,
      "hemat": 3759,
      "irection": 3760,
      "rab": 3761,
      "ords": 3762,
      "Ġformed": 3763,
      "iable": 3764,
      "27": 3765,
      "ĠSur": 3766,
      "Ġgir": 3767,
      "AL": 3768,
      "Ġmax": 3769,
      "Ġpredict": 3770,
      "Ġstatus": 3771,
      "bl": 3772,
      "Ġsch": 3773,
      "Ġpow": 3774,
      "Ġtox": 3775,
      "Ġexec": 3776,
      "Ġroad": 3777,
      "Ġcontext": 3778,
      "Ġacqu": 3779,
      "Ġrule": 3780,
      "Ġmiss": 3781,
      "Ġhistorical": 3782,
      "enty": 3783,
      "Ġ2007": 3784,
      "Ġtrack": 3785,
      "more": 3786,
      "Ġgave": 3787,
      "ĠVal": 3788,
      "ĠCoun": 3789,
      "Some": 3790,
      "rick": 3791,
      "ĠMod": 3792,
      "gypt": 3793,
      "Ġmob": 3794,
      "ĠSan": 3795,
      "ĠRead": 3796,
      "ĠCour": 3797,
      "aters": 3798,
      "Ġjoint": 3799,
      "Ġgold": 3800,
      "alt": 3801,
      "ĠInst": 3802,
      "Ġmis": 3803,
      "bre": 3804,
      "Ġnote": 3805,
      "Ġ195": 3806,
      "Ġvirt": 3807,
      "26": 3808,
      "ĠDuring": 3809,
      "Ġshowed": 3810,
      "ruary": 3811,
      "ste": 3812,
      "aint": 3813,
      "eech": 3814,
      "Ġperhaps": 3815,
      "Ġast": 3816,
      "Ġbra": 3817,
      "Ġcourt": 3818,
      "Ġtissue": 3819,
      "known": 3820,
      "encies": 3821,
      "Ġball": 3822,
      "Ġpatterns": 3823,
      "Ġmouth": 3824,
      "Ġden": 3825,
      "Ġpresence": 3826,
      "Ġimmune": 3827,
      "reet": 3828,
      "Ġcook": 3829,
      "emy": 3830,
      "Ġsitu": 3831,
      "Ġsigns": 3832,
      "Ġactions": 3833,
      "Ġvill": 3834,
      "Ġfair": 3835,
      "Ġphilos": 3836,
      "Ġnutri": 3837,
      "Ġversion": 3838,
      "Ġbelief": 3839,
      "cious": 3840,
      "Ġalcohol": 3841,
      "Ġemp": 3842,
      "Ġremember": 3843,
      "aled": 3844,
      "Ġmoment": 3845,
      "Ġsect": 3846,
      "29": 3847,
      "ĠBecause": 3848,
      "Ġincreases": 3849,
      "ĠAlso": 3850,
      "Ġmut": 3851,
      "ĠArch": 3852,
      "Ġfemale": 3853,
      "aste": 3854,
      "ĠGeneral": 3855,
      "Ġproperties": 3856,
      "Ġchoice": 3857,
      "Ġlimit": 3858,
      "oration": 3859,
      "Ġdidn": 3860,
      "Ġfully": 3861,
      "osy": 3862,
      "Ġcry": 3863,
      "Ġcapacity": 3864,
      "odes": 3865,
      "Ġguid": 3866,
      "Ġpeace": 3867,
      "Ġillness": 3868,
      "Ġsymbol": 3869,
      "Ġillust": 3870,
      "related": 3871,
      "ĠSince": 3872,
      "Ġmachine": 3873,
      "Ġcompar": 3874,
      "Ġrat": 3875,
      "Ġfactor": 3876,
      "ĠWater": 3877,
      "Ġrelatively": 3878,
      "Ġassist": 3879,
      "Ġstim": 3880,
      "inated": 3881,
      "Ġatmosp": 3882,
      "Ġfunctions": 3883,
      "co": 3884,
      "orge": 3885,
      "Ġassign": 3886,
      "que": 3887,
      "Pro": 3888,
      "iful": 3889,
      "70": 3890,
      "Ġchanged": 3891,
      "ĠNow": 3892,
      "Ġstories": 3893,
      "ĠNovember": 3894,
      "Ġunit": 3895,
      "Ġacad": 3896,
      "ĠPat": 3897,
      "phas": 3898,
      "Ġcities": 3899,
      "Ġasse": 3900,
      "Ġefficient": 3901,
      "ĠHouse": 3902,
      "Ġincor": 3903,
      "Ġpiece": 3904,
      "Ġstaff": 3905,
      "Ġtou": 3906,
      "Ġemissions": 3907,
      "Ġmig": 3908,
      "Ġconstruct": 3909,
      "28": 3910,
      "craft": 3911,
      "Ġworth": 3912,
      "Ġappears": 3913,
      "Ġanx": 3914,
      "Ġdat": 3915,
      "Ġpromot": 3916,
      "iate": 3917,
      "Ġmoving": 3918,
      "Ġworked": 3919,
      "EC": 3920,
      "Ġelement": 3921,
      "resp": 3922,
      "ĠSociety": 3923,
      "Ġtele": 3924,
      "Ġriver": 3925,
      "Ġeducational": 3926,
      "gery": 3927,
      "Ġnames": 3928,
      "ament": 3929,
      "Ġmuscle": 3930,
      "Ġtask": 3931,
      "Ġexisting": 3932,
      "Ġgiving": 3933,
      "Ġstrugg": 3934,
      "rief": 3935,
      "Ġforward": 3936,
      "ĠFin": 3937,
      "Ġarchitect": 3938,
      "ĠPeople": 3939,
      "ĠAre": 3940,
      "\",": 3941,
      "ĠProt": 3942,
      "ĠUse": 3943,
      "ternal": 3944,
      "Ġbaby": 3945,
      "iences": 3946,
      "ĠAustralia": 3947,
      "ĠConf": 3948,
      "iring": 3949,
      "Ġfresh": 3950,
      "Ġopportunities": 3951,
      "ĠJust": 3952,
      "amb": 3953,
      "Ad": 3954,
      "Ġvo": 3955,
      "Ġconvers": 3956,
      "house": 3957,
      "ĠJewish": 3958,
      "aign": 3959,
      "Ġantib": 3960,
      "Ġrepe": 3961,
      "Ġequal": 3962,
      "ession": 3963,
      "ĠEgypt": 3964,
      "Ġprice": 3965,
      "force": 3966,
      "Ġoffers": 3967,
      "pective": 3968,
      "ogle": 3969,
      "part": 3970,
      "Ġdistance": 3971,
      "ĠUnion": 3972,
      "ĠGermany": 3973,
      "ĠRo": 3974,
      "Ġtransfer": 3975,
      "abilities": 3976,
      "Ġrunning": 3977,
      "Ġwrong": 3978,
      "rupt": 3979,
      "Ġing": 3980,
      "Ġevolution": 3981,
      "Ġnative": 3982,
      "Ġpicture": 3983,
      "ees": 3984,
      "Ġcomponents": 3985,
      "II": 3986,
      "Ġinsect": 3987,
      "Ġevalu": 3988,
      "Ġregions": 3989,
      "Ġ+": 3990,
      "Ġstar": 3991,
      "Ġabsor": 3992,
      "Ġ28": 3993,
      "Ġexperim": 3994,
      "Ġassum": 3995,
      "Ġdirection": 3996,
      "Ġchallenges": 3997,
      "Ġeffic": 3998,
      "Ġwatch": 3999,
      "Ġbalance": 4000,
      "icip": 4001,
      "Ġthousands": 4002,
      "Ġbelieved": 4003,
      "ĠPhil": 4004,
      "Ġfriend": 4005,
      "Ġstyle": 4006,
      "Ġmission": 4007,
      "Ġinnov": 4008,
      "Ġexpand": 4009,
      "Ġhuge": 4010,
      "atin": 4011,
      "Ġforeign": 4012,
      "Ġsurpr": 4013,
      "Ġbox": 4014,
      "Ġroot": 4015,
      "iny": 4016,
      "Ġreports": 4017,
      "Ġdetails": 4018,
      "Ġdetect": 4019,
      "ero": 4020,
      "yd": 4021,
      "Ġmilk": 4022,
      "Ġoffice": 4023,
      "Ġinstruct": 4024,
      "âĢĿ,": 4025,
      "Ġdefined": 4026,
      "Ġfamous": 4027,
      "asion": 4028,
      "Un": 4029,
      "Ġconsumption": 4030,
      "orage": 4031,
      "Ġinstance": 4032,
      "Ġfindings": 4033,
      "Ġ26": 4034,
      "rehens": 4035,
      "Ġhair": 4036,
      "ygen": 4037,
      "All": 4038,
      "Ġplanning": 4039,
      "à¤": 4040,
      "Ġclassroom": 4041,
      "ĠFl": 4042,
      "Ġcitizens": 4043,
      "Be": 4044,
      "Ġweak": 4045,
      "Ġpassed": 4046,
      "ĠProf": 4047,
      "SA": 4048,
      "Ġmal": 4049,
      "Ġplastic": 4050,
      "Ġgarden": 4051,
      "ifically": 4052,
      "Ġchance": 4053,
      "Ġ2000": 4054,
      "ĠAssociation": 4055,
      "Ġexplain": 4056,
      "iox": 4057,
      "Ġgoals": 4058,
      "Ġsurvey": 4059,
      "Ġbreast": 4060,
      "Ġcontract": 4061,
      "Ġtreated": 4062,
      "ĠCongress": 4063,
      "Ġqual": 4064,
      "omas": 4065,
      "Ġcollabor": 4066,
      "ĠEach": 4067,
      "Ġpp": 4068,
      "Ġbound": 4069,
      "era": 4070,
      "Ġoptions": 4071,
      "Ġtechnologies": 4072,
      "Ġresistance": 4073,
      "Ġeventually": 4074,
      "HE": 4075,
      "Ġblue": 4076,
      "Ġexperiences": 4077,
      "ĠFrance": 4078,
      "Ġmap": 4079,
      "Ġobserved": 4080,
      "ĠTheir": 4081,
      "igen": 4082,
      "ĠThus": 4083,
      "eding": 4084,
      "Ġattract": 4085,
      "ĠAng": 4086,
      "Ġvision": 4087,
      "Ġglass": 4088,
      "Ġ22": 4089,
      "Ġguide": 4090,
      "Ġmale": 4091,
      "ĠEnvironment": 4092,
      "Ġphen": 4093,
      "Ġcarried": 4094,
      "Ġfeature": 4095,
      "Ġstrategies": 4096,
      "Ġ2015": 4097,
      "Ġsuggests": 4098,
      "oma": 4099,
      "After": 4100,
      "Ġdisorder": 4101,
      "Ġbank": 4102,
      "RE": 4103,
      "Ġfigure": 4104,
      "uls": 4105,
      "ĠInternet": 4106,
      "Ġfavor": 4107,
      "hors": 4108,
      "ĠFebruary": 4109,
      "ĠGreen": 4110,
      "ST": 4111,
      "Ġfert": 4112,
      "Ġseven": 4113,
      "Ġ2006": 4114,
      "Ġextremely": 4115,
      "uild": 4116,
      "Ġapply": 4117,
      "che": 4118,
      "Ġsac": 4119,
      "Ġlearned": 4120,
      "DA": 4121,
      "ĠPal": 4122,
      "pped": 4123,
      "Ġseparate": 4124,
      "cont": 4125,
      "rome": 4126,
      "Ġstructures": 4127,
      "ĠWestern": 4128,
      "Ġexcess": 4129,
      "Ġsignificantly": 4130,
      "ographic": 4131,
      "Ġgain": 4132,
      "Ġcommercial": 4133,
      "ky": 4134,
      "ald": 4135,
      "Ġsuppl": 4136,
      "Ġincome": 4137,
      "ĠMedic": 4138,
      "Ġ27": 4139,
      "eces": 4140,
      "Ġexhib": 4141,
      "bed": 4142,
      "lege": 4143,
      "Ġutil": 4144,
      "Ġdivid": 4145,
      "Ġpresented": 4146,
      "Is": 4147,
      "Ġeasier": 4148,
      "care": 4149,
      "Ġimmediately": 4150,
      "Ġhappen": 4151,
      "char": 4152,
      "Ġdepression": 4153,
      "ching": 4154,
      "Ġplans": 4155,
      "ĠUN": 4156,
      "nes": 4157,
      "ĠUK": 4158,
      "Ġtopic": 4159,
      "Ġpick": 4160,
      "uit": 4161,
      "tee": 4162,
      "Ġcelebr": 4163,
      "Ġboard": 4164,
      "Ġtruth": 4165,
      "ĠJapanese": 4166,
      "Ar": 4167,
      "Ġspring": 4168,
      "Ġsave": 4169,
      "Ġdecades": 4170,
      "Ġbecoming": 4171,
      "Ġitems": 4172,
      "Ġgeneration": 4173,
      "Ġliqu": 4174,
      "ube": 4175,
      "Ġclinical": 4176,
      "Ġreality": 4177,
      "Ġrot": 4178,
      "isation": 4179,
      "Ġexplore": 4180,
      "rieved": 4181,
      "ken": 4182,
      "Ġrequirements": 4183,
      "Ġheavy": 4184,
      "ĠProgram": 4185,
      "Ġiron": 4186,
      "Ġhom": 4187,
      "ĠLord": 4188,
      "cast": 4189,
      "iant": 4190,
      "ĠPublic": 4191,
      "Ġorganizations": 4192,
      "ĠInter": 4193,
      "wards": 4194,
      "Ġspect": 4195,
      "Ġhighest": 4196,
      "Ġdestroy": 4197,
      "Ġdyn": 4198,
      "They": 4199,
      "Ġjournal": 4200,
      "ulum": 4201,
      "ĠCur": 4202,
      "Ġves": 4203,
      "Ġbodies": 4204,
      "Ġapproximately": 4205,
      "90": 4206,
      "Ġconducted": 4207,
      "uses": 4208,
      "iated": 4209,
      "Ġalternative": 4210,
      "Ġdistribution": 4211,
      "ĠCouncil": 4212,
      "unction": 4213,
      "iance": 4214,
      "ophy": 4215,
      "Ġgene": 4216,
      "Ġlegis": 4217,
      "Ġresource": 4218,
      "zz": 4219,
      "Ġvary": 4220,
      "Ġurban": 4221,
      "Ġdecisions": 4222,
      "ĠBra": 4223,
      "ris": 4224,
      "Ġemphas": 4225,
      "ĠDon": 4226,
      "ares": 4227,
      "enth": 4228,
      "ĠTur": 4229,
      "ĠSee": 4230,
      "ĠMary": 4231,
      "Ġmo": 4232,
      "Ġcand": 4233,
      "Ġmoved": 4234,
      "Ġslight": 4235,
      "Ġperformed": 4236,
      "change": 4237,
      "Ġactual": 4238,
      "cular": 4239,
      "Ġbone": 4240,
      "Ġstream": 4241,
      "Ġaspects": 4242,
      "Ġchallenge": 4243,
      "Ġsexual": 4244,
      "Ġelectricity": 4245,
      "Ġmer": 4246,
      "Ġdisorders": 4247,
      "Ġintroduced": 4248,
      "ĠChe": 4249,
      "ologist": 4250,
      "ĠWeb": 4251,
      "asks": 4252,
      "Ġfaith": 4253,
      "Ġserve": 4254,
      "erate": 4255,
      "Ġbed": 4256,
      "ĠJames": 4257,
      "ĠVol": 4258,
      "ĠLet": 4259,
      "ĠDes": 4260,
      "plications": 4261,
      "Ġfrequently": 4262,
      "Ġpopulations": 4263,
      "ĠMat": 4264,
      "Ġnovel": 4265,
      "ias": 4266,
      "Ġindustrial": 4267,
      "ĠGreek": 4268,
      "Ġhousehold": 4269,
      "ĠHuman": 4270,
      "Ġremove": 4271,
      "Ġ2016": 4272,
      "Ġrelease": 4273,
      "Ġconnected": 4274,
      "Ġopin": 4275,
      "Ġagg": 4276,
      "Ġmetal": 4277,
      "Ġkid": 4278,
      "ulf": 4279,
      "Ġnutrition": 4280,
      "Ġfig": 4281,
      "Ġintellig": 4282,
      "Ġchronic": 4283,
      "35": 4284,
      "Ġesc": 4285,
      "Ġcontrast": 4286,
      "Ġparty": 4287,
      "ructure": 4288,
      "Ġ2005": 4289,
      "ĠAut": 4290,
      "Ġcombination": 4291,
      "Ġcycle": 4292,
      "met": 4293,
      "Ġ2014": 4294,
      "Ġmedicine": 4295,
      "ĠMich": 4296,
      "Ġwidely": 4297,
      "ĠDavid": 4298,
      "Ġâ": 4299,
      "ĠOver": 4300,
      "Ġpresident": 4301,
      "Ġletter": 4302,
      "Ġign": 4303,
      "Ph": 4304,
      "Ġreleased": 4305,
      "ĠMor": 4306,
      "Ġreference": 4307,
      "Ġhomes": 4308,
      "Ġgraph": 4309,
      "ĠSpec": 4310,
      "bal": 4311,
      "clus": 4312,
      "Ġfilm": 4313,
      "Ġcompl": 4314,
      "roph": 4315,
      "antic": 4316,
      "Ġestimated": 4317,
      "Ġvitamin": 4318,
      "Ġgames": 4319,
      "Ġdiscussion": 4320,
      "apers": 4321,
      "Ġspeech": 4322,
      "Ġexpression": 4323,
      "Ġrecommended": 4324,
      "Ġrecords": 4325,
      "Ġnuclear": 4326,
      "Ġexperiment": 4327,
      "edic": 4328,
      "Ġtransl": 4329,
      "Ġdogs": 4330,
      "Ġclearly": 4331,
      "Ġcausing": 4332,
      "ilit": 4333,
      "Ġnotes": 4334,
      "ĠRev": 4335,
      "ĠDec": 4336,
      "do": 4337,
      "ĠChildren": 4338,
      "Ġmag": 4339,
      "Ġstore": 4340,
      "Ġdesp": 4341,
      "Ġ80": 4342,
      "Ġparticipants": 4343,
      "Ġassessment": 4344,
      "AM": 4345,
      "ped": 4346,
      "ida": 4347,
      "ĠPlan": 4348,
      "ĠRepublic": 4349,
      "Ġoperations": 4350,
      "Ġthr": 4351,
      "Ġfields": 4352,
      "ously": 4353,
      "Ġdrive": 4354,
      "imens": 4355,
      "Ġoxygen": 4356,
      "Ġsetting": 4357,
      "order": 4358,
      "Ġisol": 4359,
      "Ġbuildings": 4360,
      "Ġanyone": 4361,
      "rest": 4362,
      "key": 4363,
      "Ġliterature": 4364,
      "Ġbuy": 4365,
      "EM": 4366,
      "ĠCollege": 4367,
      "Ġbottom": 4368,
      "raw": 4369,
      "Ġlived": 4370,
      "othes": 4371,
      "Ġstarting": 4372,
      "ET": 4373,
      "Ġtechnique": 4374,
      "Ġindependent": 4375,
      "ocal": 4376,
      "ĠNet": 4377,
      "Ġorganic": 4378,
      "Ġgets": 4379,
      "Ġkilled": 4380,
      "Ġviolence": 4381,
      "works": 4382,
      "Ġhear": 4383,
      "Ġtrust": 4384,
      "Ġnumerous": 4385,
      "porary": 4386,
      "Ġprepar": 4387,
      "ĠFound": 4388,
      "Ġpartners": 4389,
      "Ġdoub": 4390,
      "ognitive": 4391,
      "icial": 4392,
      "Sh": 4393,
      "ĠSpanish": 4394,
      "Ġcovered": 4395,
      "Ġwanted": 4396,
      "Ġchanging": 4397,
      "erences": 4398,
      "ĠDevelopment": 4399,
      "Ġinternal": 4400,
      "tered": 4401,
      "olved": 4402,
      "Ġpolicies": 4403,
      "Ġbattle": 4404,
      "ĠRel": 4405,
      "Ġfreedom": 4406,
      "Ġemail": 4407,
      "Ġturned": 4408,
      "Ġappe": 4409,
      "Ġtemperatures": 4410,
      "erved": 4411,
      "Ġvessel": 4412,
      "ressive": 4413,
      "Ġflood": 4414,
      "Ġunivers": 4415,
      "Ġterrit": 4416,
      "Ġwin": 4417,
      "raction": 4418,
      "rant": 4419,
      "Ġprefer": 4420,
      "ager": 4421,
      "ologists": 4422,
      "Ġminor": 4423,
      "tical": 4424,
      "Ġdri": 4425,
      "Ġconnection": 4426,
      "Ġtrib": 4427,
      "hetic": 4428,
      "roup": 4429,
      "Ġcreation": 4430,
      "Ġresulting": 4431,
      "Ġinflamm": 4432,
      "Ġready": 4433,
      "Ġtrig": 4434,
      "iders": 4435,
      "Â°": 4436,
      "Ġfailure": 4437,
      "Ġshap": 4438,
      "iveness": 4439,
      "atically": 4440,
      "ĠAv": 4441,
      "Ġcharacteristics": 4442,
      "Ġtour": 4443,
      "Ġpi": 4444,
      "ij": 4445,
      "Ġreducing": 4446,
      "OS": 4447,
      "Ġsand": 4448,
      "Ġ190": 4449,
      "Ġlayer": 4450,
      "nam": 4451,
      "Ġrisks": 4452,
      "Ġreferred": 4453,
      "ception": 4454,
      "ĠFood": 4455,
      "Ġinvolves": 4456,
      "ĠSocial": 4457,
      "ĠTherefore": 4458,
      "Ġdrop": 4459,
      "Ġstorage": 4460,
      "Ġburn": 4461,
      "Ġcampaign": 4462,
      "Ġanxiety": 4463,
      "ĠMuseum": 4464,
      "Ġexactly": 4465,
      "anging": 4466,
      "PS": 4467,
      "Ġoutput": 4468,
      "Ġsample": 4469,
      "elines": 4470,
      "Ġload": 4471,
      "lick": 4472,
      "Ġnoted": 4473,
      "Ġencourage": 4474,
      "Ġmeeting": 4475,
      "anch": 4476,
      "Ġrelationships": 4477,
      "ios": 4478,
      "stitution": 4479,
      "Ġnor": 4480,
      "Ġtim": 4481,
      "Ġ#": 4482,
      "Ġgrass": 4483,
      "Ġconv": 4484,
      "Ġsolutions": 4485,
      "ĠUnder": 4486,
      "Ġinjury": 4487,
      "Ġalg": 4488,
      "onds": 4489,
      "Ġremoved": 4490,
      "Ġinitial": 4491,
      "Ġradio": 4492,
      "Ġgod": 4493,
      "45": 4494,
      "Ġcircum": 4495,
      "ĠCourt": 4496,
      "atform": 4497,
      "Ġhappens": 4498,
      "ĠGeorge": 4499,
      "Ġocean": 4500,
      "Ġgenes": 4501,
      "Ġsem": 4502,
      "Ġdangerous": 4503,
      "Ġdistinct": 4504,
      "Ġmessage": 4505,
      "ii": 4506,
      "Ġmentioned": 4507,
      "olid": 4508,
      "ĠGovernment": 4509,
      "Ġconflict": 4510,
      "rog": 4511,
      "Ġsav": 4512,
      "Ġwhom": 4513,
      "Ġfinding": 4514,
      "Ġfeeling": 4515,
      "However": 4516,
      "Ġmostly": 4517,
      "Ġisland": 4518,
      "Ġauthors": 4519,
      "onic": 4520,
      "According": 4521,
      "Ġreplace": 4522,
      "ĠTex": 4523,
      "Ġstatement": 4524,
      "rows": 4525,
      "Ġtrou": 4526,
      "Ġconfirm": 4527,
      "Ġreligion": 4528,
      "ĠPaul": 4529,
      "Ġclasses": 4530,
      "Ġ2017": 4531,
      "ault": 4532,
      "lease": 4533,
      "Ġunf": 4534,
      "Ġinfections": 4535,
      "Ġarm": 4536,
      "Ġbackground": 4537,
      "ortunately": 4538,
      "Ġcounter": 4539,
      "Ġtum": 4540,
      "Ġdetermined": 4541,
      "Ġproperly": 4542,
      "Ġscen": 4543,
      "ĠCath": 4544,
      "Ġdegrees": 4545,
      "ishing": 4546,
      "ĠAir": 4547,
      "Ġtooth": 4548,
      "essor": 4549,
      "Ġreprodu": 4550,
      "Ġupper": 4551,
      "Ġphysic": 4552,
      "Ġhelped": 4553,
      "Ġprinciples": 4554,
      "Ġleads": 4555,
      "urance": 4556,
      "ĠIsland": 4557,
      "Ġbeautiful": 4558,
      "ĠOnce": 4559,
      "Ġdescribe": 4560,
      "mark": 4561,
      "Ġdram": 4562,
      "Ġthick": 4563,
      "Ġelimin": 4564,
      "Ġhorm": 4565,
      "with": 4566,
      "Ġheard": 4567,
      "Here": 4568,
      "Ġ186": 4569,
      "orial": 4570,
      "Ġannual": 4571,
      "Ġexcell": 4572,
      "Ġ29": 4573,
      "ĠRetrieved": 4574,
      "Ġsurgery": 4575,
      "Ġplease": 4576,
      "Ġregarding": 4577,
      "Ġserved": 4578,
      "Ġoption": 4579,
      "riculum": 4580,
      "ĠOb": 4581,
      "Ġupd": 4582,
      "ĠProject": 4583,
      "riage": 4584,
      "33": 4585,
      "ieties": 4586,
      "Ġseeds": 4587,
      "Ġadvantage": 4588,
      "osystem": 4589,
      "Ġarticles": 4590,
      "Ġincorpor": 4591,
      "Ġtrend": 4592,
      "ressed": 4593,
      "Ġpromote": 4594,
      "ĠWork": 4595,
      "Ġvolume": 4596,
      "Ġadjust": 4597,
      "Ġrace": 4598,
      "ĠOff": 4599,
      "Ġclick": 4600,
      "Ġinvolve": 4601,
      "Ġpreviously": 4602,
      "Ġpages": 4603,
      "Ġcalc": 4604,
      "Ġvolunt": 4605,
      "Ġinterpret": 4606,
      "Ġfine": 4607,
      "Ġvictim": 4608,
      "Ġunits": 4609,
      "Ġsynt": 4610,
      "Ġbelong": 4611,
      "Ġrelevant": 4612,
      "Ġmist": 4613,
      "Ġgrant": 4614,
      "Ġconservation": 4615,
      "Ġvul": 4616,
      "ĠInf": 4617,
      "ĠDem": 4618,
      "Ġadvanced": 4619,
      "uing": 4620,
      "uration": 4621,
      "Ġseed": 4622,
      "Ġmathemat": 4623,
      "Ġcollege": 4624,
      "Ġexperienced": 4625,
      "ĠWhy": 4626,
      "ĠSam": 4627,
      "ĠOrgan": 4628,
      "Ġmeat": 4629,
      "Ġcore": 4630,
      "Ġreb": 4631,
      "ria": 4632,
      "Ġinh": 4633,
      "ĠSun": 4634,
      "Ġlandsc": 4635,
      "ĠMount": 4636,
      "ago": 4637,
      "Ġinput": 4638,
      "rep": 4639,
      "och": 4640,
      "Ġ90": 4641,
      "Ġlung": 4642,
      "Ġdecided": 4643,
      "Ġeggs": 4644,
      "Ġinterested": 4645,
      "Ġvot": 4646,
      "Ġpric": 4647,
      "Ġprofession": 4648,
      "Ġdie": 4649,
      "ĠFore": 4650,
      "oyal": 4651,
      "ĠTest": 4652,
      "78": 4653,
      "ndrome": 4654,
      "Ġpal": 4655,
      "Ġcomprehens": 4656,
      "rete": 4657,
      "ĠMark": 4658,
      "Ġspent": 4659,
      "Ġreaction": 4660,
      "mal": 4661,
      "ta": 4662,
      "Ġinstall": 4663,
      "Ġlinked": 4664,
      "nic": 4665,
      "Ġspot": 4666,
      "bi": 4667,
      "Ġamounts": 4668,
      "Ġmeant": 4669,
      "Ġexperts": 4670,
      "Ġmanufacture": 4671,
      "leg": 4672,
      "ĠIts": 4673,
      "ĠMal": 4674,
      "Many": 4675,
      "Ġradiation": 4676,
      "Ġsort": 4677,
      "Con": 4678,
      "Ġcast": 4679,
      "mat": 4680,
      "cers": 4681,
      "Ġdepending": 4682,
      "Ġexposed": 4683,
      "Ġship": 4684,
      "wood": 4685,
      "Ġgender": 4686,
      "Ġwealth": 4687,
      "Ġcomfort": 4688,
      "umn": 4689,
      "ategy": 4690,
      "Ġtransform": 4691,
      "Ġsaying": 4692,
      "Ġsolid": 4693,
      "rum": 4694,
      "Ġacademic": 4695,
      "Ġkept": 4696,
      "ya": 4697,
      "Ġemotional": 4698,
      "ĠGra": 4699,
      "ributed": 4700,
      "ĠST": 4701,
      "Ġengineering": 4702,
      "ping": 4703,
      "Ġjour": 4704,
      "Ġcredit": 4705,
      "Ġsignal": 4706,
      "Ġconcerns": 4707,
      "road": 4708,
      "ĠAsia": 4709,
      "Ġnorthern": 4710,
      "Ġround": 4711,
      "Ġ...": 4712,
      "AD": 4713,
      "Ġcere": 4714,
      "Ġprocessing": 4715,
      "Ġsquare": 4716,
      "uted": 4717,
      "Ġoperation": 4718,
      "inate": 4719,
      "Ġhelping": 4720,
      "Ġ70": 4721,
      "Ġstrategy": 4722,
      "rates": 4723,
      "ĠJews": 4724,
      "Ġ2004": 4725,
      "Ġhearing": 4726,
      "75": 4727,
      "Sp": 4728,
      "CC": 4729,
      "Ġeffectively": 4730,
      "vision": 4731,
      "Ġdefic": 4732,
      "Ġsong": 4733,
      "Ġprepared": 4734,
      "ĠDi": 4735,
      "Res": 4736,
      "Ġmel": 4737,
      "ĠRober": 4738,
      "Ġobvious": 4739,
      "Ġhour": 4740,
      "ĠMars": 4741,
      "ĠMexico": 4742,
      "Ġpret": 4743,
      "iverse": 4744,
      "Ġwest": 4745,
      "Ġsouthern": 4746,
      "Ġfol": 4747,
      "ander": 4748,
      "ĠPhys": 4749,
      "Ġdiss": 4750,
      "That": 4751,
      "ĠIslam": 4752,
      "Ġfarmers": 4753,
      "Ġphase": 4754,
      "Ġexpert": 4755,
      "Ġmanage": 4756,
      "Ġessay": 4757,
      "aughter": 4758,
      "Ġmotor": 4759,
      "rans": 4760,
      "tes": 4761,
      "Ġowners": 4762,
      "Why": 4763,
      "New": 4764,
      "Ġmath": 4765,
      "Ġpollution": 4766,
      "ĠHen": 4767,
      "Ġcoal": 4768,
      "ifying": 4769,
      "Ġconcern": 4770,
      "ball": 4771,
      "Ġkill": 4772,
      "Ġcharge": 4773,
      "ded": 4774,
      "Ġpresc": 4775,
      "acing": 4776,
      "urt": 4777,
      "Ġlic": 4778,
      "Ġdatab": 4779,
      "Ġgrade": 4780,
      "Ġpip": 4781,
      "Ġvegetables": 4782,
      "36": 4783,
      "Ġmanner": 4784,
      "ux": 4785,
      "ĠBel": 4786,
      "Ġprocedure": 4787,
      "Ġpieces": 4788,
      "ams": 4789,
      "place": 4790,
      "Our": 4791,
      "Ġcompleted": 4792,
      "Ġconsult": 4793,
      "ags": 4794,
      "Ġsustainable": 4795,
      "ĠLa": 4796,
      "well": 4797,
      "ĠSub": 4798,
      "Ġconcepts": 4799,
      "Ġdiscover": 4800,
      "za": 4801,
      "Ġinvent": 4802,
      "ĠPort": 4803,
      "Ġimpl": 4804,
      "Ġmainly": 4805,
      "board": 4806,
      "ĠStudents": 4807,
      "eline": 4808,
      "which": 4809,
      "Ġofficial": 4810,
      "Ġvaccine": 4811,
      "ĠAD": 4812,
      "ek": 4813,
      "Ġatmosphere": 4814,
      "Ġseek": 4815,
      "Ġimproved": 4816,
      "Ġinfluen": 4817,
      "Ġreached": 4818,
      "Ġdiagnosis": 4819,
      "Ġsecret": 4820,
      "Ġappoint": 4821,
      "Ġconclud": 4822,
      "Ġproposed": 4823,
      "ĠâĢ¦": 4824,
      "ules": 4825,
      "Now": 4826,
      "astern": 4827,
      "Ġyouth": 4828,
      "Ġaid": 4829,
      "Ġdrinking": 4830,
      "Ġfrequency": 4831,
      "Ġlesson": 4832,
      "Ġawareness": 4833,
      "ĠJe": 4834,
      "onomic": 4835,
      "standing": 4836,
      "Ġclos": 4837,
      "Ġbrother": 4838,
      "Ġlooks": 4839,
      "Ġstation": 4840,
      "ĠRich": 4841,
      "Ġpun": 4842,
      "itz": 4843,
      "Although": 4844,
      "isher": 4845,
      "Ġinstitutions": 4846,
      "ĠArab": 4847,
      "Ġsupported": 4848,
      "Im": 4849,
      "ĠTexas": 4850,
      "Ġconver": 4851,
      "Ġauthority": 4852,
      "Ġfinally": 4853,
      "Ġplatform": 4854,
      "Ġbud": 4855,
      "ĠHIV": 4856,
      "berg": 4857,
      "Ġbegins": 4858,
      "Ġsufficient": 4859,
      "Ġreduction": 4860,
      "Ġallowing": 4861,
      "Ġcorresp": 4862,
      "Ġforced": 4863,
      "ĠWhite": 4864,
      "Ġcontinues": 4865,
      "zing": 4866,
      "ĠBudd": 4867,
      "rence": 4868,
      "Ġblog": 4869,
      "Ġchemicals": 4870,
      "Ġpurposes": 4871,
      "vis": 4872,
      "Ġdefinition": 4873,
      "Ġformation": 4874,
      "ĠAcad": 4875,
      "Ġhospital": 4876,
      "akers": 4877,
      "Ġmotiv": 4878,
      "Ã¡": 4879,
      "ĠNAS": 4880,
      "ĠSen": 4881,
      "AP": 4882,
      "ĠService": 4883,
      "Ġnotice": 4884,
      "uable": 4885,
      "Ġwonder": 4886,
      "ague": 4887,
      "kin": 4888,
      "Ġhop": 4889,
      "iling": 4890,
      "Ġpractical": 4891,
      "RO": 4892,
      "Ġrecorded": 4893,
      "clusion": 4894,
      "oking": 4895,
      "Ġwet": 4896,
      "itors": 4897,
      "Ġintended": 4898,
      "aker": 4899,
      "lig": 4900,
      "Ġban": 4901,
      "acific": 4902,
      "rapy": 4903,
      "Ġyellow": 4904,
      "Ġcontribute": 4905,
      "ĠVirgin": 4906,
      "Ġcomment": 4907,
      "38": 4908,
      "amental": 4909,
      "ormal": 4910,
      "CO": 4911,
      "Ġ2003": 4912,
      "Cl": 4913,
      "des": 4914,
      "Ġextensive": 4915,
      "Ġmorning": 4916,
      "Ġlib": 4917,
      "ĠEv": 4918,
      "Ġphenomen": 4919,
      "ĠHel": 4920,
      "alle": 4921,
      "Ġtoxic": 4922,
      "ĠEvery": 4923,
      "Ġfort": 4924,
      "Ġmuscles": 4925,
      "Ġefficiency": 4926,
      "Ġelectrical": 4927,
      "Ġcareer": 4928,
      "Ġtaught": 4929,
      "Ġlanguages": 4930,
      "ĠCentral": 4931,
      "Ġfib": 4932,
      "comes": 4933,
      "ĠRem": 4934,
      "ĠSer": 4935,
      "Ġsusp": 4936,
      "Ġwaters": 4937,
      "Ġeast": 4938,
      "Ġlov": 4939,
      "ĠJer": 4940,
      "verty": 4941,
      "Ġcoord": 4942,
      "Ġcombined": 4943,
      "Ġsituations": 4944,
      "Ġstorm": 4945,
      "Ġmaster": 4946,
      "ht": 4947,
      "ĠBritain": 4948,
      "100": 4949,
      "ishes": 4950,
      "otic": 4951,
      "Ġpoverty": 4952,
      "Ġoffered": 4953,
      "Ġvulner": 4954,
      "'ll": 4955,
      "Ġrenew": 4956,
      "Ġsubjects": 4957,
      "From": 4958,
      "Ġhit": 4959,
      "Ġshared": 4960,
      "eters": 4961,
      "roke": 4962,
      "ĠMiss": 4963,
      "atric": 4964,
      "Ġnav": 4965,
      "ĠMr": 4966,
      "ĠMac": 4967,
      "ses": 4968,
      "osite": 4969,
      "oper": 4970,
      "Ġdro": 4971,
      "Ġfocused": 4972,
      "rations": 4973,
      "Ġkinds": 4974,
      "Ġcenturies": 4975,
      "ĠLou": 4976,
      "ĠThomas": 4977,
      "Ġprimarily": 4978,
      "Ġsamples": 4979,
      "ĠBer": 4980,
      "Ġremained": 4981,
      "Ġpark": 4982,
      "ĠOld": 4983,
      "Ġnerv": 4984,
      "Ġfacts": 4985,
      "aturally": 4986,
      "espite": 4987,
      "ears": 4988,
      "rier": 4989,
      "Ġheight": 4990,
      "Ġsettle": 4991,
      "Ġconsequences": 4992,
      "ĠKore": 4993,
      "ĠFranc": 4994,
      "ounced": 4995,
      "Ġdynam": 4996,
      "Ġtechnical": 4997,
      "yright": 4998,
      "Ġ35": 4999,
      "Ġstraight": 5000,
      "Ġlinks": 5001,
      "ado": 5002,
      "Ġbrief": 5003,
      "Ġideal": 5004,
      "Ġcertainly": 5005,
      "Ġindicate": 5006,
      "Ġproteins": 5007,
      "ĠBas": 5008,
      "ample": 5009,
      "Ġperman": 5010,
      "Ġmort": 5011,
      "tion": 5012,
      "arrow": 5013,
      "Ġidentity": 5014,
      "ĠCivil": 5015,
      "Ġdoll": 5016,
      "Ġtasks": 5017,
      "ossible": 5018,
      "ework": 5019,
      "ĠMuslim": 5020,
      "ache": 5021,
      "Ġflex": 5022,
      "Ġtreatments": 5023,
      "ĠMedical": 5024,
      "ixt": 5025,
      "Ġjobs": 5026,
      "Ġlargely": 5027,
      "Ġraised": 5028,
      "Ġexistence": 5029,
      "ulating": 5030,
      "Ġliquid": 5031,
      "Ab": 5032,
      "Ġgrand": 5033,
      "gra": 5034,
      "Ġnit": 5035,
      "rian": 5036,
      "gl": 5037,
      "Most": 5038,
      "Ġpul": 5039,
      "ĠMedicine": 5040,
      "Ġcris": 5041,
      "ĠLife": 5042,
      "Ġmotion": 5043,
      "Ġdigest": 5044,
      "ĠMart": 5045,
      "ĠMet": 5046,
      "Ġspecifically": 5047,
      "Ġvoice": 5048,
      "Ġnutrients": 5049,
      "Ġstone": 5050,
      "Ġarmy": 5051,
      "Ġfoss": 5052,
      "US": 5053,
      "oo": 5054,
      "Ġprofessor": 5055,
      "Ġwife": 5056,
      "ĠArmy": 5057,
      "field": 5058,
      "Ġiniti": 5059,
      "Ġoperating": 5060,
      "Ġfelt": 5061,
      "Ġshowing": 5062,
      "ĠClass": 5063,
      "Ġrecy": 5064,
      "istan": 5065,
      "Ġbird": 5066,
      "acters": 5067,
      "Ġletters": 5068,
      "ĠBen": 5069,
      "Ġecosystem": 5070,
      "34": 5071,
      "going": 5072,
      "Ġspend": 5073,
      "Ġtro": 5074,
      "Ġmix": 5075,
      "ĠIr": 5076,
      "Ġther": 5077,
      "EL": 5078,
      "Ġextent": 5079,
      "ĠFre": 5080,
      "rich": 5081,
      "ĠSal": 5082,
      "olute": 5083,
      "Ġperspective": 5084,
      "Ġcollected": 5085,
      "west": 5086,
      "ĠFurther": 5087,
      "inger": 5088,
      "ĠCle": 5089,
      "Ġexcellent": 5090,
      "ĠBay": 5091,
      "Ġoccurred": 5092,
      "ĠAtl": 5093,
      "osen": 5094,
      "Ġmetab": 5095,
      "Ġhyper": 5096,
      "Ġflowers": 5097,
      "Ġresist": 5098,
      "Ġadvance": 5099,
      "what": 5100,
      "Ġbright": 5101,
      "Ġkeeping": 5102,
      "Ġleader": 5103,
      "ĠEnergy": 5104,
      "othing": 5105,
      "ĠNews": 5106,
      "Ġaffects": 5107,
      "Ġgirls": 5108,
      "Ġimpacts": 5109,
      "ras": 5110,
      "Americ": 5111,
      "Ġpros": 5112,
      "Ġattacks": 5113,
      "Ġthoughts": 5114,
      "Ġsector": 5115,
      "ĠNASA": 5116,
      "ĠCommission": 5117,
      "Ġfaster": 5118,
      "Ġshar": 5119,
      "ĠDise": 5120,
      "Ġquar": 5121,
      "unk": 5122,
      "rastructure": 5123,
      "Pl": 5124,
      "Ġdespite": 5125,
      "Ġpray": 5126,
      "Ġnations": 5127,
      "Ġ2001": 5128,
      "ĠSpace": 5129,
      "Ġcert": 5130,
      "Ġdiam": 5131,
      "Ġkn": 5132,
      "Ġresponsibility": 5133,
      "Ġ1990": 5134,
      "Äģ": 5135,
      "ĠDist": 5136,
      "Ġsalt": 5137,
      "inent": 5138,
      "Ġdouble": 5139,
      "Ġrail": 5140,
      "Ġvast": 5141,
      "Ġvital": 5142,
      "ipped": 5143,
      "Ġsurrounding": 5144,
      "Ġtrial": 5145,
      "ĠTechnology": 5146,
      "Ġsounds": 5147,
      "Ġhelpful": 5148,
      "col": 5149,
      "ĠDirect": 5150,
      "Ġsche": 5151,
      "inf": 5152,
      "Ġotherwise": 5153,
      "No": 5154,
      "Ġvent": 5155,
      "Ġdetailed": 5156,
      "39": 5157,
      "ails": 5158,
      "Ġimmig": 5159,
      "Ġonto": 5160,
      "Ġrefers": 5161,
      "OT": 5162,
      "ĠLatin": 5163,
      "'ve": 5164,
      "enses": 5165,
      "Ġbill": 5166,
      "Ġliver": 5167,
      "that": 5168,
      "osa": 5169,
      "point": 5170,
      "Ġroll": 5171,
      "ĠHol": 5172,
      "Ġadvice": 5173,
      "Ġplaying": 5174,
      "Ġexplains": 5175,
      "utive": 5176,
      "Ġaren": 5177,
      "Ġcognitive": 5178,
      "Ġplayed": 5179,
      "umin": 5180,
      "Ġagricultural": 5181,
      "ey": 5182,
      "Ġsyn": 5183,
      "Ġinterests": 5184,
      "Ġemergency": 5185,
      "Ġabuse": 5186,
      "iced": 5187,
      "Ġoral": 5188,
      "ĠBoth": 5189,
      "nel": 5190,
      "Ġfacilities": 5191,
      "Ġclim": 5192,
      "ĠSecond": 5193,
      "ĠBur": 5194,
      "Ġpersons": 5195,
      "Ġfif": 5196,
      "Ġvehicle": 5197,
      "Ġrevolution": 5198,
      "Ġfamiliar": 5199,
      "Ġbiological": 5200,
      "Ġsend": 5201,
      "Ġmeasured": 5202,
      "ĠÃ": 5203,
      "Ġneut": 5204,
      "Ġstem": 5205,
      "Ġfluid": 5206,
      "ĠQue": 5207,
      "zy": 5208,
      "Ġexternal": 5209,
      "Ġsuggested": 5210,
      "Ġparticles": 5211,
      "Ġfloor": 5212,
      "Ġhttps": 5213,
      "Ġperiods": 5214,
      "ometimes": 5215,
      "Ġimmun": 5216,
      "Ġreturned": 5217,
      "anges": 5218,
      "Ġincreasingly": 5219,
      "band": 5220,
      "rolog": 5221,
      "Ġfollows": 5222,
      "Ġmonitoring": 5223,
      "Ġtrain": 5224,
      "ael": 5225,
      "itness": 5226,
      "Ġrural": 5227,
      "stood": 5228,
      ".;": 5229,
      "ĠMass": 5230,
      "ensus": 5231,
      "Ġcomponent": 5232,
      "ĠDef": 5233,
      "oughly": 5234,
      "ĠBC": 5235,
      "ĠTwo": 5236,
      "Ġtypical": 5237,
      "athy": 5238,
      "Ġcrops": 5239,
      "Ġtopics": 5240,
      "Ġdomestic": 5241,
      "igenous": 5242,
      "Ġdivided": 5243,
      "ancing": 5244,
      "ĠCam": 5245,
      "Ġmere": 5246,
      "pen": 5247,
      "Ġlik": 5248,
      "Ġcontrolled": 5249,
      "ĠLearning": 5250,
      "48": 5251,
      "Ġgreatest": 5252,
      "inding": 5253,
      "Ġhappened": 5254,
      "Ġcharacters": 5255,
      "Ġinstruction": 5256,
      "Ġslightly": 5257,
      "Ġpolice": 5258,
      "Ġmaximum": 5259,
      "asure": 5260,
      "ĠBible": 5261,
      "Ġthin": 5262,
      "Ġmoist": 5263,
      "olars": 5264,
      "Ġsnow": 5265,
      "gal": 5266,
      "Ġ189": 5267,
      "Ġgoods": 5268,
      "].": 5269,
      "Ġ2002": 5270,
      "mp": 5271,
      "Ġspl": 5272,
      "Ġexplan": 5273,
      "Ġfundamental": 5274,
      "ĠTreat": 5275,
      "oviet": 5276,
      "ĠRights": 5277,
      "eria": 5278,
      "Ġlooked": 5279,
      "name": 5280,
      "lar": 5281,
      "omy": 5282,
      "Ġflat": 5283,
      "inant": 5284,
      "Ġaccurate": 5285,
      "Ġfirm": 5286,
      "Ġbow": 5287,
      "resents": 5288,
      "Ġsen": 5289,
      "Ġpil": 5290,
      "Ġprotected": 5291,
      "racy": 5292,
      "Ġinterview": 5293,
      "Ġrecognized": 5294,
      "Ġcontaining": 5295,
      "Ġapparent": 5296,
      "right": 5297,
      "Ġwel": 5298,
      "Ġfruits": 5299,
      "atever": 5300,
      "Ġpaint": 5301,
      "ĠBook": 5302,
      "RI": 5303,
      "ship": 5304,
      "Ġexplained": 5305,
      "hi": 5306,
      "Ġconsists": 5307,
      "Ġtested": 5308,
      "down": 5309,
      "ingly": 5310,
      "Ġcardi": 5311,
      "itage": 5312,
      "Ġsatis": 5313,
      "?âĢĿ": 5314,
      "Ġlose": 5315,
      "Ġdepends": 5316,
      "ĠSou": 5317,
      "Ġhundreds": 5318,
      "Ġfiles": 5319,
      "ĠFlor": 5320,
      "Ġpotentially": 5321,
      "ĠWind": 5322,
      "Ġinstrument": 5323,
      "Ġgovernments": 5324,
      "Ġju": 5325,
      "ĠElect": 5326,
      "ND": 5327,
      "ĠPacific": 5328,
      "Ġchief": 5329,
      "Ġharvest": 5330,
      "Ġcurriculum": 5331,
      "ĠToday": 5332,
      "Ġtitle": 5333,
      "ĠMil": 5334,
      "aks": 5335,
      "Ġrequest": 5336,
      "Ġfle": 5337,
      "ompl": 5338,
      "Ġspiritual": 5339,
      "Ġapproaches": 5340,
      "state": 5341,
      "Ġsmart": 5342,
      "Ġvalid": 5343,
      "Ġroots": 5344,
      "oral": 5345,
      "ION": 5346,
      "Do": 5347,
      "ĠUsing": 5348,
      "Ġstudied": 5349,
      "Ġproport": 5350,
      "cript": 5351,
      "Ġconcerned": 5352,
      "Ġchann": 5353,
      "Ġneighbor": 5354,
      "eck": 5355,
      "Ġfeelings": 5356,
      "Ġkil": 5357,
      "ĠCatholic": 5358,
      "Ġelev": 5359,
      "li": 5360,
      "Ġphone": 5361,
      "BC": 5362,
      "ĠFoundation": 5363,
      "roc": 5364,
      "umber": 5365,
      "ificial": 5366,
      "Ġcrucial": 5367,
      "gment": 5368,
      "Ġobtained": 5369,
      "celer": 5370,
      "Ġclaims": 5371,
      "Ġconscious": 5372,
      "Ġsuffering": 5373,
      "Ġwalls": 5374,
      "Ġconvent": 5375,
      "Ġinvestment": 5376,
      "ĠInformation": 5377,
      "Ġdisapp": 5378,
      "Ġgrown": 5379,
      "Ġsubsequ": 5380,
      "Ġtried": 5381,
      "More": 5382,
      "Ġportion": 5383,
      "ĠData": 5384,
      "onomy": 5385,
      "Ġdut": 5386,
      "Ġ2018": 5387,
      "Ġsubstant": 5388,
      "37": 5389,
      "pat": 5390,
      "ĠCarol": 5391,
      "Ġofficials": 5392,
      "Ġstars": 5393,
      "ĠLake": 5394,
      "ĠCD": 5395,
      "ascular": 5396,
      "Ġpu": 5397,
      "Ġdepth": 5398,
      "ville": 5399,
      "van": 5400,
      "ĠRussian": 5401,
      "TS": 5402,
      "Ġclosely": 5403,
      "Ġhabitat": 5404,
      "ĠCharles": 5405,
      "Ġwire": 5406,
      "Ġknew": 5407,
      "Ġcontinuous": 5408,
      "Another": 5409,
      "Ġrepresents": 5410,
      "Ġprocedures": 5411,
      "Ġdiscussed": 5412,
      "inations": 5413,
      "ĠWomen": 5414,
      "Ġsin": 5415,
      "Ġrapidly": 5416,
      "Ġcrisis": 5417,
      "Ġkm": 5418,
      "la": 5419,
      "ĠGoogle": 5420,
      "ĠStand": 5421,
      "Ġtips": 5422,
      "Ġhaz": 5423,
      "Ġdu": 5424,
      "Ġprices": 5425,
      "44": 5426,
      "Ġappeared": 5427,
      "ĠJud": 5428,
      "Ġmovements": 5429,
      "ING": 5430,
      "Ġwestern": 5431,
      "Ġminimum": 5432,
      "Ġextract": 5433,
      "fl": 5434,
      "ooth": 5435,
      "ÃŃ": 5436,
      "MS": 5437,
      "ario": 5438,
      "win": 5439,
      "active": 5440,
      "ĠMicro": 5441,
      "Ġvisible": 5442,
      "osc": 5443,
      "ĠMont": 5444,
      "Ġconcentration": 5445,
      "Ġpig": 5446,
      "abil": 5447,
      "Ġprison": 5448,
      "ĠMiddle": 5449,
      "Ġpaid": 5450,
      "Ġages": 5451,
      "Ġadding": 5452,
      "ĠNor": 5453,
      "ĠSea": 5454,
      "ĠAnother": 5455,
      "cest": 5456,
      "anes": 5457,
      "ĠMem": 5458,
      "Ġsides": 5459,
      "Ġnaturally": 5460,
      "Ġ2020": 5461,
      "ellect": 5462,
      "âĢĻ.": 5463,
      "Ġdistingu": 5464,
      "anguage": 5465,
      "Ġcolors": 5466,
      "ulin": 5467,
      "ĠJose": 5468,
      "Ġaccompl": 5469,
      "ĠSmith": 5470,
      "iled": 5471,
      "Ġpump": 5472,
      "ĠLand": 5473,
      "Ġmedications": 5474,
      "oster": 5475,
      "Ġalt": 5476,
      "Ġgar": 5477,
      "Ġstated": 5478,
      "isp": 5479,
      "Ġmedium": 5480,
      "ĠOut": 5481,
      "ĠSoviet": 5482,
      "Ġvaluable": 5483,
      "ĠDel": 5484,
      "Ġselected": 5485,
      "Ġexpensive": 5486,
      "Ġinternet": 5487,
      "Ġpregnancy": 5488,
      "Ġdiversity": 5489,
      "lers": 5490,
      "Ġoutcomes": 5491,
      "Ġviews": 5492,
      "Ġinflammation": 5493,
      "Ġleaving": 5494,
      "Ġhunt": 5495,
      "ĠRobert": 5496,
      "ĠSupp": 5497,
      "Ġdecrease": 5498,
      "Ġcouple": 5499,
      "ĠFam": 5500,
      "Ġmoral": 5501,
      "Ġlessons": 5502,
      "chers": 5503,
      "Ġlatest": 5504,
      "Ġcorrespond": 5505,
      "ĠControl": 5506,
      "Ġcircumst": 5507,
      "Ġhorse": 5508,
      "Ġjustice": 5509,
      "Ġdeliver": 5510,
      "burg": 5511,
      "Ġrand": 5512,
      "Ġsed": 5513,
      "Ġneuro": 5514,
      "Ġdiscovery": 5515,
      "ocratic": 5516,
      "Ġstret": 5517,
      "Ġinfrastructure": 5518,
      "icks": 5519,
      "Ġformat": 5520,
      "Ġappearance": 5521,
      "32": 5522,
      "Ġ188": 5523,
      "bing": 5524,
      "alse": 5525,
      "Ġresidents": 5526,
      "ĠEngine": 5527,
      "Ġagriculture": 5528,
      "ĠInstead": 5529,
      "Ġgun": 5530,
      "ĠEmp": 5531,
      "Ġband": 5532,
      "Ġdeaths": 5533,
      "ĠMake": 5534,
      "Ġargument": 5535,
      "Ġrecognize": 5536,
      "Ġregularly": 5537,
      "Ġsatell": 5538,
      "ĠLibrary": 5539,
      "Ġcontem": 5540,
      "Ġdial": 5541,
      "65": 5542,
      "ĠBat": 5543,
      "ĠLike": 5544,
      "ĠWell": 5545,
      "Ġdocuments": 5546,
      "tenance": 5547,
      "Ġrandom": 5548,
      "Ġsubstance": 5549,
      "Ġsyndrome": 5550,
      "Ġod": 5551,
      "Ġrein": 5552,
      "Ġdirector": 5553,
      "Ġsuffer": 5554,
      "ĠHenry": 5555,
      "Ġweap": 5556,
      "olester": 5557,
      "ĠUp": 5558,
      "indu": 5559,
      "roid": 5560,
      "ĠHam": 5561,
      "Ġmillions": 5562,
      "free": 5563,
      "Ġprinciple": 5564,
      "Ġsets": 5565,
      "Ġmobile": 5566,
      "ĠSuch": 5567,
      "Ġstock": 5568,
      "Ġdriving": 5569,
      "Ġtalking": 5570,
      "Ġwear": 5571,
      "ĠRussia": 5572,
      "Ind": 5573,
      "alian": 5574,
      "Ġfrag": 5575,
      "Ġreform": 5576,
      "olf": 5577,
      "Ġshel": 5578,
      "Ġfacilit": 5579,
      "Ġfunding": 5580,
      "Ġingred": 5581,
      "Ġaccomp": 5582,
      "ĠStudies": 5583,
      "uke": 5584,
      "Ġpictures": 5585,
      "ĠCompany": 5586,
      "ĠRef": 5587,
      "mas": 5588,
      "Ġadequ": 5589,
      "De": 5590,
      "ĠSte": 5591,
      "Go": 5592,
      "Ġprotocol": 5593,
      "stream": 5594,
      "Ġmyth": 5595,
      "rid": 5596,
      "198": 5597,
      "ĠDisc": 5598,
      "Ġcapable": 5599,
      "ĠWild": 5600,
      "Ġ2019": 5601,
      "Ġ45": 5602,
      "Ġ*": 5603,
      "olesterol": 5604,
      "Ġrecovery": 5605,
      "fall": 5606,
      "ĠPsych": 5607,
      "Ġallerg": 5608,
      "Ġinfected": 5609,
      "Ġintroduction": 5610,
      "ato": 5611,
      "Ġbusinesses": 5612,
      "exp": 5613,
      "Ġparam": 5614,
      "ĠPost": 5615,
      "Ġtrad": 5616,
      "Ġvillage": 5617,
      "Ġenhance": 5618,
      "Ġemployees": 5619,
      "Ġadvoc": 5620,
      "Gen": 5621,
      "Ġraise": 5622,
      "Ġinterf": 5623,
      "Ġsick": 5624,
      "Ġnormally": 5625,
      "ada": 5626,
      "During": 5627,
      "Ġnarr": 5628,
      "ĠPower": 5629,
      "Ġcreative": 5630,
      "liam": 5631,
      "Ġintelligence": 5632,
      "dden": 5633,
      "omach": 5634,
      "esity": 5635,
      "othe": 5636,
      "Ġfertil": 5637,
      "rem": 5638,
      "Ġsecure": 5639,
      "ca": 5640,
      "Ġclosed": 5641,
      "Ġhouses": 5642,
      "mbly": 5643,
      "Ġparties": 5644,
      "Ġinject": 5645,
      "Ġdescribes": 5646,
      "Ġ<": 5647,
      "idden": 5648,
      "long": 5649,
      "Ġinches": 5650,
      "Ġcorpor": 5651,
      "Ġtraffic": 5652,
      "pass": 5653,
      "ĠVirginia": 5654,
      "ĠConstitution": 5655,
      "Sc": 5656,
      "ĠNav": 5657,
      "Ġsoldiers": 5658,
      "DF": 5659,
      "ĠPC": 5660,
      "ĠTem": 5661,
      "ĠNature": 5662,
      "Ġformal": 5663,
      "iology": 5664,
      "ĠFederal": 5665,
      "Dr": 5666,
      "ĠLouis": 5667,
      "Ġtun": 5668,
      "ota": 5669,
      "Ġpure": 5670,
      "olve": 5671,
      "cling": 5672,
      "Ġsan": 5673,
      "Te": 5674,
      "plicated": 5675,
      "teries": 5676,
      "ĠSaf": 5677,
      "ibilities": 5678,
      "Ġunlike": 5679,
      "Ġimpossible": 5680,
      "Ġopinion": 5681,
      "Ġentirely": 5682,
      "Other": 5683,
      "Ġstages": 5684,
      "Ġapart": 5685,
      "ĠBet": 5686,
      "Ġaw": 5687,
      "Ġnarrow": 5688,
      "Ġrecip": 5689,
      "Ġexchange": 5690,
      "Ġaccepted": 5691,
      "ka": 5692,
      "rants": 5693,
      "Ġcalls": 5694,
      "Ġabsolute": 5695,
      "HO": 5696,
      "Ġbrown": 5697,
      "ypes": 5698,
      "Ġdream": 5699,
      "Ġpref": 5700,
      "Ġopened": 5701,
      "inet": 5702,
      "Ġmit": 5703,
      "Ġprevention": 5704,
      "Ġproducing": 5705,
      "Ġlabel": 5706,
      "Ġstored": 5707,
      "ĠÎ": 5708,
      "Ġoriginally": 5709,
      "Ġgenerate": 5710,
      "ĠGroup": 5711,
      "Ġunderstood": 5712,
      "ĠHistor": 5713,
      "Ġsensitive": 5714,
      "Ġprecise": 5715,
      "ĠEnvironmental": 5716,
      "Ġgall": 5717,
      "Ġarms": 5718,
      "osal": 5719,
      "organ": 5720,
      "Ġsuc": 5721,
      "99": 5722,
      "Ġcoff": 5723,
      "agers": 5724,
      "Ġlifest": 5725,
      "obe": 5726,
      "reed": 5727,
      "Ġmarriage": 5728,
      "Ġincl": 5729,
      "pping": 5730,
      "Ġble": 5731,
      "hemical": 5732,
      "Ġchapter": 5733,
      "Ġpossibly": 5734,
      "Ġpoet": 5735,
      "Ġtouch": 5736,
      "Ġcomputers": 5737,
      "orith": 5738,
      "Ġmoon": 5739,
      "Ġlisted": 5740,
      "ĠManagement": 5741,
      "Ġsudden": 5742,
      "Ġmassive": 5743,
      "Ġchain": 5744,
      "being": 5745,
      "Ġwarming": 5746,
      "Ġleadership": 5747,
      "spec": 5748,
      "anda": 5749,
      "ditionally": 5750,
      "uilding": 5751,
      "Ġadministration": 5752,
      "76": 5753,
      "osph": 5754,
      "imer": 5755,
      "My": 5756,
      "31": 5757,
      "Ġlibrary": 5758,
      "ĠMo": 5759,
      "Ġera": 5760,
      "Ġapprec": 5761,
      "Ġnurs": 5762,
      "Ġrecon": 5763,
      "ĠTer": 5764,
      "Ġpretty": 5765,
      "Ġimproving": 5766,
      "Ġregional": 5767,
      "Ġcandid": 5768,
      "Ġspeaking": 5769,
      "Ġworldwide": 5770,
      "500": 5771,
      "add": 5772,
      "Ġbones": 5773,
      "liament": 5774,
      "Ġsecondary": 5775,
      "oto": 5776,
      "hist": 5777,
      "ĠKnow": 5778,
      "ĠAp": 5779,
      "Ġdental": 5780,
      "ĠDiv": 5781,
      "ocracy": 5782,
      "Ġdiscrim": 5783,
      "Ġrestrict": 5784,
      "Ġindex": 5785,
      "ĠSum": 5786,
      "ĠOx": 5787,
      "ava": 5788,
      "Ġadopted": 5789,
      "Ġtal": 5790,
      "Ġfigures": 5791,
      "Ġwave": 5792,
      "Ġnetworks": 5793,
      "ona": 5794,
      "ĠCommit": 5795,
      "ye": 5796,
      "Ġrevealed": 5797,
      "Ġstarts": 5798,
      "Ġsuitable": 5799,
      "Ġsurvival": 5800,
      "Ġdatabase": 5801,
      "Ġprepare": 5802,
      "Ġvehicles": 5803,
      "ĠKen": 5804,
      "Ġdiverse": 5805,
      "Ġwildlife": 5806,
      "Ġdecline": 5807,
      "Ġbehaviour": 5808,
      "Ġworse": 5809,
      "Ġ1999": 5810,
      "war": 5811,
      "Ġflight": 5812,
      "Ġmedication": 5813,
      "Ġpossibility": 5814,
      "Ġexperiments": 5815,
      "Ġfill": 5816,
      "Ġmamm": 5817,
      "erals": 5818,
      "Ġphr": 5819,
      "Ġforests": 5820,
      "Ġpossess": 5821,
      "Ġacts": 5822,
      "Ġdistrict": 5823,
      "Ġplate": 5824,
      "ĠNations": 5825,
      "Ġwindow": 5826,
      "Us": 5827,
      "hips": 5828,
      "ctic": 5829,
      "ĠPers": 5830,
      "Ġleaf": 5831,
      "LE": 5832,
      "ifies": 5833,
      "CS": 5834,
      "flow": 5835,
      "agues": 5836,
      "55": 5837,
      "Ġrepeated": 5838,
      "ua": 5839,
      "osm": 5840,
      "Ġunless": 5841,
      "Ġstick": 5842,
      "Ġintake": 5843,
      "ĠMa": 5844,
      "vironments": 5845,
      "cules": 5846,
      "Ġcopy": 5847,
      "Ġselection": 5848,
      "anged": 5849,
      "Ġanswers": 5850,
      ".|": 5851,
      "Ġancest": 5852,
      "Ġmur": 5853,
      "Ġagencies": 5854,
      "Ġmarine": 5855,
      "ĠFlorida": 5856,
      "oted": 5857,
      "ĠCanadian": 5858,
      "Ġcomprehensive": 5859,
      "asp": 5860,
      "bert": 5861,
      "Ġachieved": 5862,
      "49": 5863,
      "Ġtoler": 5864,
      "Ġrub": 5865,
      "Ġcreates": 5866,
      "See": 5867,
      "apping": 5868,
      "Ġbattery": 5869,
      "Ġlatter": 5870,
      "ropical": 5871,
      "Ġcars": 5872,
      "BN": 5873,
      "Ġlandscape": 5874,
      "46": 5875,
      "Ġroutine": 5876,
      "ĠColumb": 5877,
      "Ġprem": 5878,
      "ĠCommon": 5879,
      "ston": 5880,
      "Ġfab": 5881,
      "no": 5882,
      "Ġreaders": 5883,
      "ini": 5884,
      "Ġsell": 5885,
      "aria": 5886,
      "ĠTHE": 5887,
      "Ġmountain": 5888,
      "Ġdepos": 5889,
      "Ġaccounts": 5890,
      "Ġgather": 5891,
      "Ġassistance": 5892,
      "aser": 5893,
      "Ġsupplement": 5894,
      "ĠScient": 5895,
      "Ġmanufacturing": 5896,
      "lements": 5897,
      "Ġminim": 5898,
      "hma": 5899,
      "Ġvolunte": 5900,
      "Ġsurf": 5901,
      "Ġshell": 5902,
      "ki": 5903,
      "Ġhappy": 5904,
      "Ġindeed": 5905,
      "Ġremaining": 5906,
      "struct": 5907,
      "gent": 5908,
      "ĠId": 5909,
      "Ġabund": 5910,
      "Re": 5911,
      "Ġsurvive": 5912,
      "inn": 5913,
      "Ġsweet": 5914,
      "Ġharmful": 5915,
      "Ġexpressed": 5916,
      "Ġ31": 5917,
      "Ġfell": 5918,
      "alysis": 5919,
      "....": 5920,
      "asive": 5921,
      "Ġbudget": 5922,
      "Ġdust": 5923,
      "Ġuniverse": 5924,
      "Ġcourses": 5925,
      "Ġengage": 5926,
      "Ġplays": 5927,
      "Ġtroops": 5928,
      "orter": 5929,
      "Ġdoctors": 5930,
      "Ġaqu": 5931,
      "ĠAtt": 5932,
      "Ġguidelines": 5933,
      "Ġelectronic": 5934,
      "normal": 5935,
      "Ġdedic": 5936,
      "ĠProv": 5937,
      "Ġtail": 5938,
      "Ġfilled": 5939,
      "orrow": 5940,
      "abits": 5941,
      "Ġcultiv": 5942,
      "Ġ1980": 5943,
      "ĠOffice": 5944,
      "ĠBro": 5945,
      "Ġinjuries": 5946,
      "Ġagreement": 5947,
      "ĠGood": 5948,
      "Ġextended": 5949,
      "Ġtwice": 5950,
      "Ġimper": 5951,
      "Ġprofessionals": 5952,
      "77": 5953,
      "Ġframework": 5954,
      "Ġsolve": 5955,
      "Ġedge": 5956,
      "tage": 5957,
      "Ġlands": 5958,
      "rors": 5959,
      "ĠAnn": 5960,
      "erent": 5961,
      "Ġchoices": 5962,
      "htm": 5963,
      "acts": 5964,
      "ansion": 5965,
      "Ġgenerated": 5966,
      "Ġslowly": 5967,
      "Ġwants": 5968,
      "ĠLabor": 5969,
      "Ġsequence": 5970,
      ".âĢĻ": 5971,
      "Ġfailed": 5972,
      "Se": 5973,
      "Ġtow": 5974,
      "ĠAlex": 5975,
      "Ġsports": 5976,
      "Ġdoor": 5977,
      "Ġseeing": 5978,
      "Ġequival": 5979,
      "Ġchart": 5980,
      "ĠAny": 5981,
      "Read": 5982,
      "Ġhealthcare": 5983,
      "Ġantibiot": 5984,
      "ĠTor": 5985,
      "Cont": 5986,
      "ĠLeg": 5987,
      "Ġacceler": 5988,
      "Ġbroken": 5989,
      "Ġtruly": 5990,
      "Ġmuseum": 5991,
      "Ġbeneficial": 5992,
      "mary": 5993,
      "ceived": 5994,
      "Ġaudience": 5995,
      "ĠOF": 5996,
      "last": 5997,
      "Ġamb": 5998,
      "Ġintellect": 5999,
      "Ġaf": 6000,
      "Ġnan": 6001,
      "UR": 6002,
      "Ġpull": 6003,
      "ĠReview": 6004,
      "ashion": 6005,
      "ums": 6006,
      "Ġopening": 6007,
      "Ġcalcium": 6008,
      "born": 6009,
      "Ġtiny": 6010,
      "luding": 6011,
      "Ġaircraft": 6012,
      "Ġtransmission": 6013,
      "ny": 6014,
      "Ġwid": 6015,
      "using": 6016,
      "ĠAbout": 6017,
      "Ġsignals": 6018,
      "Ġstomach": 6019,
      "ĠCare": 6020,
      "ĠRome": 6021,
      "Ġtransition": 6022,
      "Ġafford": 6023,
      "Ġproduces": 6024,
      "ĠIll": 6025,
      "Ġfoundation": 6026,
      "Ġobtain": 6027,
      "Ġjourney": 6028,
      "Ġbio": 6029,
      "Ġwww": 6030,
      "ĠUSA": 6031,
      "Ġreject": 6032,
      "Ġunknown": 6033,
      "ĠThose": 6034,
      "Ġwaves": 6035,
      "ester": 6036,
      "Ġthor": 6037,
      "ogue": 6038,
      "Ġcircumstances": 6039,
      "Ġstruggle": 6040,
      "Ġconsistent": 6041,
      "Ġinsects": 6042,
      "Ġpermanent": 6043,
      "Ġlocations": 6044,
      "Ġimplementation": 6045,
      "Ġscholars": 6046,
      "ĠYet": 6047,
      "icians": 6048,
      "Ġremote": 6049,
      "ĠOnly": 6050,
      "inating": 6051,
      "ett": 6052,
      "Ġchildhood": 6053,
      "body": 6054,
      "Ġcatch": 6055,
      "ait": 6056,
      "igation": 6057,
      "Ġdecade": 6058,
      "Ġstudying": 6059,
      "Ġtraum": 6060,
      "under": 6061,
      "Ġ>": 6062,
      "gans": 6063,
      "Ġgreatly": 6064,
      "Ġenable": 6065,
      "Ġswitch": 6066,
      "âĢĻ,": 6067,
      "Ġdiscipl": 6068,
      "Ġmulti": 6069,
      "Ġcloud": 6070,
      "Ġethnic": 6071,
      "Ġlots": 6072,
      "arant": 6073,
      "Ġax": 6074,
      "Ġmanaged": 6075,
      "Ġlaboratory": 6076,
      "Ġcholesterol": 6077,
      "Ġskill": 6078,
      "Ġderived": 6079,
      "ĠDan": 6080,
      "Ġflav": 6081,
      "Ġdecide": 6082,
      "Ġalgorith": 6083,
      "Ġenvironments": 6084,
      "itt": 6085,
      "Ġmaintenance": 6086,
      "Ġwish": 6087,
      "wing": 6088,
      "Ġdescription": 6089,
      "Ġfly": 6090,
      "Ġtells": 6091,
      "Ġsod": 6092,
      "Ġacids": 6093,
      "Ġgrav": 6094,
      "pet": 6095,
      "ribed": 6096,
      "ĠGlobal": 6097,
      "Ġsteel": 6098,
      "Ġhus": 6099,
      "Ġdin": 6100,
      "ĠExpl": 6101,
      "CT": 6102,
      "Ġsentence": 6103,
      "Ġfixed": 6104,
      "ĠFe": 6105,
      "zen": 6106,
      "opy": 6107,
      "ĠAustralian": 6108,
      "Ġoptim": 6109,
      "itative": 6110,
      "Ġdoubt": 6111,
      "ĠJoseph": 6112,
      "ĠThrough": 6113,
      "Ġsuccessfully": 6114,
      "Stud": 6115,
      "iform": 6116,
      "Ġ1998": 6117,
      "inder": 6118,
      "ĠVict": 6119,
      "Ġ500": 6120,
      "Ġvessels": 6121,
      "rus": 6122,
      "Ġdaughter": 6123,
      "ĠDesign": 6124,
      "Ġaer": 6125,
      "47": 6126,
      "Ġraw": 6127,
      "lets": 6128,
      "Ġoutl": 6129,
      "Ġcart": 6130,
      "inity": 6131,
      "ĠChic": 6132,
      "Ġreplaced": 6133,
      "Ġmarried": 6134,
      "Ġintervention": 6135,
      "ĠLong": 6136,
      "eper": 6137,
      "but": 6138,
      "Ġopposite": 6139,
      "Ġmechanism": 6140,
      "inction": 6141,
      "Ġbear": 6142,
      "Not": 6143,
      "Ġsharing": 6144,
      "Ġindicates": 6145,
      "ront": 6146,
      "Ġnewsp": 6147,
      "Ġcircuit": 6148,
      "Ġcultures": 6149,
      "âĢĺ": 6150,
      "Ġcompr": 6151,
      "ĠMad": 6152,
      "Ġresponses": 6153,
      "Ġconstitution": 6154,
      "Ġrepresented": 6155,
      "ĠProfessor": 6156,
      "Ġ300": 6157,
      "Ġmarked": 6158,
      "reland": 6159,
      "ifications": 6160,
      "from": 6161,
      "ĠDisease": 6162,
      "Ġboost": 6163,
      "EP": 6164,
      "Ġfossil": 6165,
      "icide": 6166,
      "Ġdifficulty": 6167,
      "IL": 6168,
      "gu": 6169,
      "phone": 6170,
      "Ġnerve": 6171,
      "ĠGold": 6172,
      "Ġfasc": 6173,
      "Ġauthorities": 6174,
      "ĠPeter": 6175,
      "ĠBre": 6176,
      "Ġhydrogen": 6177,
      "zil": 6178,
      "Ġuns": 6179,
      "Ġcarefully": 6180,
      "Since": 6181,
      "ĠSl": 6182,
      "Ġsky": 6183,
      "ctive": 6184,
      "ioxide": 6185,
      "isters": 6186,
      "ĠLab": 6187,
      "ivery": 6188,
      "Can": 6189,
      "level": 6190,
      "En": 6191,
      "throp": 6192,
      "Ġfiber": 6193,
      "Ã¼": 6194,
      "Ġinner": 6195,
      "Ġorganized": 6196,
      "Ġerror": 6197,
      "Ġlaun": 6198,
      "Ġ1970": 6199,
      "Ġcorn": 6200,
      "Ġsight": 6201,
      "Ġarrived": 6202,
      "Ġprincip": 6203,
      "wo": 6204,
      "Ġthousand": 6205,
      "ĠCommittee": 6206,
      "ĠIN": 6207,
      "Ġunable": 6208,
      "Ġregist": 6209,
      "elled": 6210,
      "Ġmolecules": 6211,
      "Ġregul": 6212,
      "Ġultimately": 6213,
      "ĠRad": 6214,
      "then": 6215,
      "inking": 6216,
      "itan": 6217,
      "Ġinteraction": 6218,
      "Ġcritic": 6219,
      "ĠParis": 6220,
      "Ġgal": 6221,
      "Ġgluc": 6222,
      "kes": 6223,
      "Ġwitness": 6224,
      "tra": 6225,
      "ĠSk": 6226,
      "ĠReport": 6227,
      "Ġunp": 6228,
      "usal": 6229,
      "ĠAI": 6230,
      "Ġconsumers": 6231,
      "Ġagency": 6232,
      "ipping": 6233,
      "ĠKh": 6234,
      "ĠStreet": 6235,
      "iration": 6236,
      "Ġcomposition": 6237,
      "Ġyounger": 6238,
      "ĠFrank": 6239,
      "onia": 6240,
      "Ġinstitution": 6241,
      "Ġsimpl": 6242,
      "Ġphilosophy": 6243,
      "ocy": 6244,
      "Ġdestroyed": 6245,
      "Ġdensity": 6246,
      "Ġpus": 6247,
      "Ġemotions": 6248,
      "Bl": 6249,
      "ĠSouthern": 6250,
      "Ġourselves": 6251,
      "Ġroof": 6252,
      "OC": 6253,
      "Ġattend": 6254,
      "Ġends": 6255,
      "Ġwalking": 6256,
      "fish": 6257,
      "Ġratio": 6258,
      "Ġdesire": 6259,
      "Ġmixed": 6260,
      "aped": 6261,
      "Ġshift": 6262,
      "ĠHall": 6263,
      "Ġ185": 6264,
      "ena": 6265,
      "Ġimmediate": 6266,
      "ĠCult": 6267,
      "umes": 6268,
      "Ġdebate": 6269,
      "Ġpurchase": 6270,
      "word": 6271,
      "rine": 6272,
      "ints": 6273,
      "edu": 6274,
      "Ġcoffee": 6275,
      "Ġnine": 6276,
      "Ġconcrete": 6277,
      "American": 6278,
      "Ġlimits": 6279,
      "Ġcloser": 6280,
      "Ġgone": 6281,
      "ĠIP": 6282,
      "Ġcomments": 6283,
      "ĠStudy": 6284,
      "Pe": 6285,
      "Ġpup": 6286,
      "Ġneck": 6287,
      "ĠNatural": 6288,
      "Ġveter": 6289,
      "Ġcolour": 6290,
      "Ġmild": 6291,
      "Ġdownload": 6292,
      "Ġlisten": 6293,
      "hand": 6294,
      "ita": 6295,
      "Ġchosen": 6296,
      "Ġfounded": 6297,
      "Ġaccum": 6298,
      "Ġacknow": 6299,
      "fortunately": 6300,
      "Ġremark": 6301,
      "Ġlifestyle": 6302,
      "________": 6303,
      "Ġbreathing": 6304,
      "Ġhandle": 6305,
      "hop": 6306,
      "Ġpreval": 6307,
      "Ġreader": 6308,
      "ĠHome": 6309,
      "uts": 6310,
      "stein": 6311,
      "Ġconventional": 6312,
      "Ġsucceed": 6313,
      "ribe": 6314,
      "Ġamaz": 6315,
      "Ġregulations": 6316,
      "orses": 6317,
      "Ġnecessarily": 6318,
      "Ġrelax": 6319,
      "Ġevaluation": 6320,
      "Ġterritory": 6321,
      "Ġvoc": 6322,
      "ĠCa": 6323,
      "Ġmechanisms": 6324,
      "Ġparalle": 6325,
      "Ġfewer": 6326,
      "95": 6327,
      "Ġphotograph": 6328,
      "kins": 6329,
      "Ġelectron": 6330,
      "Ġattached": 6331,
      "cel": 6332,
      "irty": 6333,
      "Ġstanding": 6334,
      "Ġbrand": 6335,
      "Ġhighlight": 6336,
      "riting": 6337,
      "ĠIreland": 6338,
      "Ġfalse": 6339,
      "Ġstands": 6340,
      "Ġalle": 6341,
      "Ġdedicated": 6342,
      "Ġtank": 6343,
      "stone": 6344,
      "rating": 6345,
      "Ġsupplies": 6346,
      "Ġpersist": 6347,
      "ĠCamp": 6348,
      "ĠEth": 6349,
      "Ġfeeding": 6350,
      "izer": 6351,
      "Ġhero": 6352,
      "Ġjoin": 6353,
      "Ġoverl": 6354,
      "Ġsupports": 6355,
      "Ġyield": 6356,
      "Ġmembr": 6357,
      "Ġrefuge": 6358,
      "Ġreserv": 6359,
      "Ġtwenty": 6360,
      "tic": 6361,
      "Ġvote": 6362,
      "Ġmac": 6363,
      "ĠValley": 6364,
      "sey": 6365,
      "ĠHaw": 6366,
      "ĠCat": 6367,
      "Ġships": 6368,
      "ĠStep": 6369,
      "Ġsupporting": 6370,
      "Ġtransportation": 6371,
      "ĠMag": 6372,
      "ĠExp": 6373,
      "Ġinstructions": 6374,
      "ĠStat": 6375,
      "Ġbiggest": 6376,
      "Ġcutting": 6377,
      "called": 6378,
      "ĠClin": 6379,
      "ĠNorthern": 6380,
      "itudes": 6381,
      "Ġfighting": 6382,
      "ymph": 6383,
      "Ġknows": 6384,
      "IP": 6385,
      "Ġdent": 6386,
      "ictionary": 6387,
      "orous": 6388,
      "Ġcarb": 6389,
      "Ġdioxide": 6390,
      "Ġwhatever": 6391,
      "Ġgrew": 6392,
      "Ġpowers": 6393,
      "Ġarchitecture": 6394,
      "cycl": 6395,
      "Ġparticipate": 6396,
      "ĠGet": 6397,
      "Ġcontained": 6398,
      "rd": 6399,
      "Ġhem": 6400,
      "Ġcolleagues": 6401,
      "anta": 6402,
      "ML": 6403,
      "ora": 6404,
      "ctor": 6405,
      "ĠBank": 6406,
      "Ġcomparison": 6407,
      "Ġinhib": 6408,
      "Ġunderlying": 6409,
      "Ġzone": 6410,
      "Ġwriter": 6411,
      "ĠDet": 6412,
      "ĠPub": 6413,
      "ĠAdminist": 6414,
      "Ġunus": 6415,
      "Ġcommunicate": 6416,
      "Ġdrawing": 6417,
      "Ġfunctional": 6418,
      "Ġfeedback": 6419,
      "top": 6420,
      "Ġoccasion": 6421,
      "tering": 6422,
      "Ġeld": 6423,
      "Ġbehaviors": 6424,
      "Ġath": 6425,
      "Ġorganisms": 6426,
      "Ġcompounds": 6427,
      "Ġfabric": 6428,
      "Ġclust": 6429,
      "stract": 6430,
      "heast": 6431,
      "ĠGal": 6432,
      "ĠCarolina": 6433,
      "Ġmice": 6434,
      "riers": 6435,
      "ĠForm": 6436,
      "Ġuniversity": 6437,
      "ĠExt": 6438,
      "Ġexists": 6439,
      "Ġtea": 6440,
      "ĠCancer": 6441,
      "zed": 6442,
      "Ġresolution": 6443,
      "ĠExper": 6444,
      "ĠItaly": 6445,
      "Ġpercentage": 6446,
      "Ġsubs": 6447,
      "ĠAdd": 6448,
      "bour": 6449,
      "ĠAcademy": 6450,
      "Ġhousing": 6451,
      "05": 6452,
      "hav": 6453,
      "iratory": 6454,
      "Ġwilling": 6455,
      "Ġpresentation": 6456,
      "ĠVis": 6457,
      "Ġtaste": 6458,
      "Ġlies": 6459,
      "utch": 6460,
      "Ġbread": 6461,
      "omic": 6462,
      "onal": 6463,
      "Ġaccident": 6464,
      "ĠSol": 6465,
      "Ġturns": 6466,
      "Ġhabits": 6467,
      "Ġlaunch": 6468,
      "ĠEmpire": 6469,
      "Ġstroke": 6470,
      "ĠSpain": 6471,
      "Ġcontamin": 6472,
      "ĠTime": 6473,
      "aud": 6474,
      "cher": 6475,
      "ĠAS": 6476,
      "Ġhoriz": 6477,
      "Ġdebt": 6478,
      "irt": 6479,
      "ĠPan": 6480,
      "Figure": 6481,
      "Ġru": 6482,
      "Ġserver": 6483,
      "Ġobesity": 6484,
      "Ġfrequent": 6485,
      "Ġwhereas": 6486,
      "Ġjoined": 6487,
      "isk": 6488,
      "earchers": 6489,
      "Ġpool": 6490,
      "ĠMill": 6491,
      "Ġpron": 6492,
      "Ġvulnerable": 6493,
      "Ġtrained": 6494,
      "such": 6495,
      "Ġcrow": 6496,
      "Ġ1960": 6497,
      "irus": 6498,
      "hether": 6499,
      "Ġcats": 6500,
      "ĠOcean": 6501,
      "ione": 6502,
      "ĠRob": 6503,
      "Ġimprovement": 6504,
      "Ġgreenhouse": 6505,
      "ĠBoard": 6506,
      "Int": 6507,
      "ĠRoyal": 6508,
      "Let": 6509,
      "sts": 6510,
      "Ġrising": 6511,
      "rovers": 6512,
      "ested": 6513,
      "Ġguarant": 6514,
      "Ġbeliefs": 6515,
      "Ġpra": 6516,
      "Ġswim": 6517,
      "ĠISBN": 6518,
      "Ġcompetition": 6519,
      "ĠFort": 6520,
      "Ġmachines": 6521,
      "ĠOh": 6522,
      "comm": 6523,
      "uh": 6524,
      "Ġeastern": 6525,
      "Ġmagnetic": 6526,
      "Ġdistur": 6527,
      "Ġresulted": 6528,
      "Ġneur": 6529,
      "Ġpsychological": 6530,
      "Ġment": 6531,
      "ĠColor": 6532,
      "ĠEnd": 6533,
      "Ġkit": 6534,
      "Ġcustomers": 6535,
      "Ġdemonstrate": 6536,
      "esis": 6537,
      "roduction": 6538,
      "ella": 6539,
      "Ġdemonstrated": 6540,
      "ĠRevolution": 6541,
      "Ġmeth": 6542,
      "Ġsupposed": 6543,
      "Ġ1997": 6544,
      "irds": 6545,
      "bridge": 6546,
      "cture": 6547,
      "struction": 6548,
      "Ġexplo": 6549,
      "Ġepid": 6550,
      "Ġprove": 6551,
      "Ġequivalent": 6552,
      "Ġtall": 6553,
      "Ġshot": 6554,
      "ĠRichard": 6555,
      "ĠBrown": 6556,
      "Ġlegs": 6557,
      "teen": 6558,
      "Ġrecognition": 6559,
      "ĠSciences": 6560,
      "Â·": 6561,
      "ditional": 6562,
      "een": 6563,
      "Ġrhy": 6564,
      "weight": 6565,
      "Ġcrime": 6566,
      "nect": 6567,
      "while": 6568,
      "Ġteen": 6569,
      "Ġborder": 6570,
      "etime": 6571,
      "uter": 6572,
      "Ġchrom": 6573,
      "hesis": 6574,
      "BS": 6575,
      "Ġtrials": 6576,
      "Ġsmoking": 6577,
      "icious": 6578,
      "Ġvariable": 6579,
      "Ġprev": 6580,
      "ĠWood": 6581,
      "Ġartificial": 6582,
      "Ġreactions": 6583,
      "ritis": 6584,
      "Ġconfidence": 6585,
      "Ġconnections": 6586,
      "ĠPenn": 6587,
      "abul": 6588,
      "Ġastr": 6589,
      "icon": 6590,
      "ĠHoly": 6591,
      "yles": 6592,
      "Ġdefe": 6593,
      "Ġbot": 6594,
      "Ġadministr": 6595,
      "ittle": 6596,
      "ĠCap": 6597,
      "Ġfunds": 6598,
      "ĠChicago": 6599,
      "ults": 6600,
      "Ġshop": 6601,
      "ih": 6602,
      "ĠPract": 6603,
      "Ġconclusion": 6604,
      "Ġprogramming": 6605,
      "Ġinstruments": 6606,
      "Ġissued": 6607,
      "ĠBul": 6608,
      "Ġobservations": 6609,
      "hered": 6610,
      "01": 6611,
      "Ġcapture": 6612,
      "Ġnoise": 6613,
      "Ġexamine": 6614,
      "42": 6615,
      "Ġrelation": 6616,
      "Ġnearby": 6617,
      "Ġstable": 6618,
      "Ġcamera": 6619,
      "Ġpartner": 6620,
      "Ġtissues": 6621,
      "Ġlayers": 6622,
      "ĠâĢ¢": 6623,
      "Ġmand": 6624,
      "66": 6625,
      "Ġinsulin": 6626,
      "DP": 6627,
      "plant": 6628,
      "Ġrecept": 6629,
      "Ã³": 6630,
      "Ġpolitics": 6631,
      "Ġfu": 6632,
      "Ġdrain": 6633,
      "IG": 6634,
      "Ġpair": 6635,
      "Ġdelay": 6636,
      "erior": 6637,
      "arn": 6638,
      "Ġahead": 6639,
      "Ġsubstances": 6640,
      "Ġinteractions": 6641,
      "eless": 6642,
      "Ġobjective": 6643,
      "Ġscript": 6644,
      "Ġwasn": 6645,
      "Ġblocks": 6646,
      "inally": 6647,
      "Ġindependence": 6648,
      "ĠIndians": 6649,
      "Ġvoltage": 6650,
      "how": 6651,
      "Ġpainting": 6652,
      "xts": 6653,
      "Ġsections": 6654,
      "Ġdelivery": 6655,
      "Ġhypothes": 6656,
      "Lear": 6657,
      "Rec": 6658,
      "Ġshut": 6659,
      "79": 6660,
      "ĠBrazil": 6661,
      "Ġgenerations": 6662,
      "Ġmanif": 6663,
      "Ġentry": 6664,
      "Ġmatters": 6665,
      "Ġdefine": 6666,
      "Ġdiagnosed": 6667,
      "itter": 6668,
      "ugh": 6669,
      "anches": 6670,
      "Ġhur": 6671,
      "ĠBab": 6672,
      "Ġsurve": 6673,
      "ether": 6674,
      "Ġchick": 6675,
      "ups": 6676,
      "ediatric": 6677,
      "igned": 6678,
      "Ġemployment": 6679,
      "Ġmaps": 6680,
      "usiness": 6681,
      "aph": 6682,
      "43": 6683,
      "ĠWik": 6684,
      "scale": 6685,
      "Ġinsurance": 6686,
      "Le": 6687,
      "Ġdepartment": 6688,
      "ĠAgricult": 6689,
      "ola": 6690,
      "everal": 6691,
      "Ġsmoke": 6692,
      "Ġthy": 6693,
      "itely": 6694,
      "Ġusage": 6695,
      "ĠFree": 6696,
      "Ġinvolving": 6697,
      "cons": 6698,
      "ourage": 6699,
      "aked": 6700,
      "Ġarrange": 6701,
      "Ġrank": 6702,
      "ĠTimes": 6703,
      "oding": 6704,
      "andon": 6705,
      "Ġpositions": 6706,
      "Ġelectro": 6707,
      "Ġcryst": 6708,
      "peror": 6709,
      "ĠGard": 6710,
      "pread": 6711,
      "ĠMichael": 6712,
      "Ġprompt": 6713,
      "Ġbanks": 6714,
      "Ġagreed": 6715,
      "Ġcovers": 6716,
      "CD": 6717,
      "Ġcards": 6718,
      "Ġflag": 6719,
      "First": 6720,
      "earing": 6721,
      "ĠScott": 6722,
      "etics": 6723,
      "Ġlegislation": 6724,
      "Ġmold": 6725,
      "ĠNative": 6726,
      "ĠKeep": 6727,
      "ĠEss": 6728,
      "ĠScot": 6729,
      "Ġfever": 6730,
      "Ġflo": 6731,
      "Ġdanger": 6732,
      "ĠCreat": 6733,
      "Ġrow": 6734,
      "Ġpoison": 6735,
      "Ġoperate": 6736,
      "Ġestimates": 6737,
      "Ġbridge": 6738,
      "Ġparticipation": 6739,
      "pan": 6740,
      "Ġcategories": 6741,
      "Ġtrip": 6742,
      "Ġmanip": 6743,
      "ĠGeorg": 6744,
      "Ġputting": 6745,
      "ĠStr": 6746,
      "idespread": 6747,
      "Ġcalories": 6748,
      "itivity": 6749,
      "ishment": 6750,
      "Ġforget": 6751,
      "Ġsettings": 6752,
      "Ġcm": 6753,
      "Ġzero": 6754,
      "Ġundert": 6755,
      "Ġadequate": 6756,
      "ĠClimate": 6757,
      "ĠDiff": 6758,
      "asters": 6759,
      "bra": 6760,
      "Ġorgans": 6761,
      "fit": 6762,
      "Ġsole": 6763,
      "Ġgap": 6764,
      "ighter": 6765,
      "ĠEastern": 6766,
      "ocation": 6767,
      "Ġreven": 6768,
      "Ġsmooth": 6769,
      "eenth": 6770,
      "dule": 6771,
      "Ġ75": 6772,
      "Ġenemy": 6773,
      "Ġassociation": 6774,
      "Ġscan": 6775,
      "Ġrepair": 6776,
      "umps": 6777,
      "Ġframe": 6778,
      "ĠSing": 6779,
      "Ġbrings": 6780,
      "osion": 6781,
      "urrent": 6782,
      "Ġspending": 6783,
      "Ġrelief": 6784,
      "Ġforth": 6785,
      "Ġelection": 6786,
      "icit": 6787,
      "Ġmos": 6788,
      "Ġruns": 6789,
      "ĠGuide": 6790,
      "Ġconsumer": 6791,
      "88": 6792,
      "Ġpapers": 6793,
      "IR": 6794,
      "Ġcup": 6795,
      "abled": 6796,
      "Ġblow": 6797,
      "Ġplayers": 6798,
      "Ġmode": 6799,
      "Ġaccessible": 6800,
      "Ġboy": 6801,
      "Ġindicated": 6802,
      "Ġsacr": 6803,
      "sis": 6804,
      "Ġholds": 6805,
      "ala": 6806,
      "LA": 6807,
      "Ġlaunched": 6808,
      "Ġeveryday": 6809,
      "Ġmaintaining": 6810,
      "Ġnone": 6811,
      "Ġminerals": 6812,
      "ĠWhere": 6813,
      "aine": 6814,
      "occ": 6815,
      "Ġspok": 6816,
      "Ġille": 6817,
      "Your": 6818,
      "Ġ36": 6819,
      "Ġroute": 6820,
      "Ġmatch": 6821,
      "Ġphysics": 6822,
      "Ġmeal": 6823,
      "Ġnervous": 6824,
      "Ġexplanation": 6825,
      "Ġoblig": 6826,
      "ĠItalian": 6827,
      "Ġcounty": 6828,
      "Ġdivision": 6829,
      "ĠLanguage": 6830,
      "Ġglucose": 6831,
      "Ġended": 6832,
      "car": 6833,
      "Ġcontrols": 6834,
      "Ġfract": 6835,
      "ulty": 6836,
      "Over": 6837,
      "she": 6838,
      "Ġintegrated": 6839,
      "Ġtight": 6840,
      "Of": 6841,
      "Ġchallenging": 6842,
      "Ġexpansion": 6843,
      "Ġdepart": 6844,
      "Ġmarkets": 6845,
      "Ġconstructed": 6846,
      "ĠIII": 6847,
      "Ġstimul": 6848,
      "rite": 6849,
      "ĠDig": 6850,
      "Ġscene": 6851,
      "Ġreliable": 6852,
      "Ġislands": 6853,
      "opic": 6854,
      "ading": 6855,
      "iah": 6856,
      "Ġholding": 6857,
      "Ġrice": 6858,
      "Ġstring": 6859,
      "Ġpassage": 6860,
      "Ġearthqu": 6861,
      "Ġcentre": 6862,
      "Ġloved": 6863,
      "iability": 6864,
      "Ġemployed": 6865,
      "Qu": 6866,
      "ĠFace": 6867,
      "Ġexercises": 6868,
      "Ġfold": 6869,
      "yth": 6870,
      "Ġbutter": 6871,
      "Ġkidney": 6872,
      "Ġongoing": 6873,
      "ĠBig": 6874,
      "Ġnob": 6875,
      "Ġcolumn": 6876,
      "ĠZeal": 6877,
      "ĠVictor": 6878,
      "Ġlegisl": 6879,
      "41": 6880,
      "ented": 6881,
      "Ġdrawn": 6882,
      "Ġcommitted": 6883,
      "Ġsheet": 6884,
      "Ġfashion": 6885,
      "%)": 6886,
      "Ġvs": 6887,
      "Ġfurn": 6888,
      "oples": 6889,
      "Ġspaces": 6890,
      "Ġearn": 6891,
      "Ġdestruction": 6892,
      "Ġnegot": 6893,
      "Ġtons": 6894,
      "ĠHave": 6895,
      "orph": 6896,
      "Ġdamaged": 6897,
      "Ġdiag": 6898,
      "pes": 6899,
      "Ġrivers": 6900,
      "Ã¶": 6901,
      "Ġmm": 6902,
      "gov": 6903,
      "Ġboys": 6904,
      "Ġhole": 6905,
      "Ġwithd": 6906,
      "oven": 6907,
      "Ġvirtual": 6908,
      "ĠMer": 6909,
      "Ġoutbre": 6910,
      "ĠIrish": 6911,
      "ureau": 6912,
      "utrition": 6913,
      "idity": 6914,
      "Ġtransp": 6915,
      "Ġpreparation": 6916,
      "Ġdomain": 6917,
      "ĠParty": 6918,
      "gers": 6919,
      "Ġhonor": 6920,
      "Ġbond": 6921,
      "Ġ1995": 6922,
      "Ġske": 6923,
      "Ġaward": 6924,
      "Ġconven": 6925,
      "Ġmeters": 6926,
      "Ġasking": 6927,
      "ployment": 6928,
      "Ġphoto": 6929,
      "Ġindustries": 6930,
      "Ġ1996": 6931,
      "herent": 6932,
      "Ġestimate": 6933,
      "Ġburning": 6934,
      "Ġneither": 6935,
      "Ùİ": 6936,
      "Ġreduces": 6937,
      "Once": 6938,
      "Ġtrouble": 6939,
      "arsh": 6940,
      "Ġhun": 6941,
      "Ġrig": 6942,
      "VID": 6943,
      "ĠĊ": 6944,
      "IM": 6945,
      "Ġreceiving": 6946,
      "Ġ150": 6947,
      "Ġstreet": 6948,
      "Ġcomposed": 6949,
      "Ġcoastal": 6950,
      "OL": 6951,
      "Ġtexts": 6952,
      "Ġinstalled": 6953,
      "Ġcategory": 6954,
      "Ġentered": 6955,
      "Ġstrongly": 6956,
      "Ġapproved": 6957,
      "ĠKingdom": 6958,
      "Ġorient": 6959,
      "Ġsomewhat": 6960,
      "azine": 6961,
      "Ġtub": 6962,
      "IA": 6963,
      "Ġmissing": 6964,
      "CA": 6965,
      "Ġwidespread": 6966,
      "Ġworry": 6967,
      "Ġfemales": 6968,
      "Ġhistoric": 6969,
      "Ġring": 6970,
      "ĠZealand": 6971,
      "htt": 6972,
      "ady": 6973,
      "ĠServices": 6974,
      "Ġintellectual": 6975,
      "making": 6976,
      "Ġturning": 6977,
      "ĠYear": 6978,
      "Ġdeclared": 6979,
      "Ġtract": 6980,
      "abulary": 6981,
      "Ġrealize": 6982,
      "reated": 6983,
      "Ġfulf": 6984,
      "Med": 6985,
      "Ġholid": 6986,
      "Ġvac": 6987,
      "ibl": 6988,
      "Ġstre": 6989,
      "amins": 6990,
      "Ġpharm": 6991,
      "ĠEarly": 6992,
      "ĠAccess": 6993,
      "idential": 6994,
      "Ġviruses": 6995,
      "ĠCop": 6996,
      "Ġhusband": 6997,
      "Ġvictims": 6998,
      "Ġdesigns": 6999,
      "ĠIss": 7000,
      "Ġbiod": 7001,
      "ĠProp": 7002,
      "Ġcrim": 7003,
      "Ġcontrovers": 7004,
      "mes": 7005,
      "ĠEqu": 7006,
      "Ġgram": 7007,
      "Ġkne": 7008,
      "Ġ32": 7009,
      "Ġrecommendations": 7010,
      "Ġdollars": 7011,
      "Ġdistributed": 7012,
      "Ġwait": 7013,
      "Ġevaluate": 7014,
      "Ġmoisture": 7015,
      "Ġblind": 7016,
      "Ġbreath": 7017,
      "gical": 7018,
      "Ġmales": 7019,
      "alls": 7020,
      "Ġmolecular": 7021,
      "Even": 7022,
      "Ġseemed": 7023,
      "SS": 7024,
      "inson": 7025,
      "isdom": 7026,
      "Ġexamination": 7027,
      "Ġmeasurements": 7028,
      "Ġforg": 7029,
      "Ġintense": 7030,
      "Ġcircle": 7031,
      "Ġmood": 7032,
      "Ġparallel": 7033,
      "Ġhorses": 7034,
      "Ġpublication": 7035,
      "Ġarrest": 7036,
      "itamin": 7037,
      "ĠSup": 7038,
      "Ġrely": 7039,
      "ĠTake": 7040,
      "ohyd": 7041,
      "ĠNaz": 7042,
      "reek": 7043,
      "ĠFamily": 7044,
      "ifts": 7045,
      "Ġvolcan": 7046,
      "opes": 7047,
      "Ġarchae": 7048,
      "Ġfacility": 7049,
      "Don": 7050,
      "oln": 7051,
      "cyclop": 7052,
      "Ġconstantly": 7053,
      "Ġartists": 7054,
      "ĠForest": 7055,
      "thritis": 7056,
      "Ġroles": 7057,
      "rooms": 7058,
      "Ġconversation": 7059,
      "85": 7060,
      "Ġbeings": 7061,
      "acco": 7062,
      "Ġmeasurement": 7063,
      "Ġseeking": 7064,
      "Ġproportion": 7065,
      "Ġmechanical": 7066,
      "Ġbabies": 7067,
      "Ġabandon": 7068,
      "health": 7069,
      "Ġcompare": 7070,
      "aded": 7071,
      "Ġthanks": 7072,
      "Ġrenewable": 7073,
      "Ġfacing": 7074,
      "Ġcav": 7075,
      "rial": 7076,
      "adder": 7077,
      "Ġrid": 7078,
      "igan": 7079,
      "ĠTV": 7080,
      "va": 7081,
      "Ġnest": 7082,
      "Ġdoi": 7083,
      "Ġfavorite": 7084,
      "quit": 7085,
      "ĠViet": 7086,
      "asty": 7087,
      "ĠAtlantic": 7088,
      "rey": 7089,
      "ĠResources": 7090,
      "Ġmerely": 7091,
      "Ġescape": 7092,
      "hent": 7093,
      "Ġstrict": 7094,
      "Ġvariables": 7095,
      "ĠPM": 7096,
      "Ġoutcome": 7097,
      "ĠCy": 7098,
      "ivered": 7099,
      "iological": 7100,
      "Ġintest": 7101,
      "alm": 7102,
      "Ġsignificance": 7103,
      "Ġmetabol": 7104,
      "Ġdependent": 7105,
      "gs": 7106,
      "ĠAcc": 7107,
      "operation": 7108,
      "Ġengaged": 7109,
      "ĠAge": 7110,
      "Ġbeauty": 7111,
      "UT": 7112,
      "ĠTeac": 7113,
      "Ġofficers": 7114,
      "UN": 7115,
      "Ġrespectively": 7116,
      "rane": 7117,
      "heimer": 7118,
      "Ġcenters": 7119,
      "Ġannounced": 7120,
      "Because": 7121,
      "Ġagents": 7122,
      "Ġincred": 7123,
      "orders": 7124,
      "Ġfarming": 7125,
      "ĠBefore": 7126,
      "yal": 7127,
      "Ġtheme": 7128,
      "ventions": 7129,
      "sen": 7130,
      "Ġnose": 7131,
      "Ġrocks": 7132,
      "Ġcriteria": 7133,
      "Ġplus": 7134,
      "ĠAP": 7135,
      "ortion": 7136,
      "Ġped": 7137,
      "Ġfro": 7138,
      "iral": 7139,
      "Ġsought": 7140,
      "Ġclothing": 7141,
      "ĠAgency": 7142,
      "ĠMoreover": 7143,
      "ĠMartin": 7144,
      "Ġoffering": 7145,
      "Ġmining": 7146,
      "hyd": 7147,
      "Ġacute": 7148,
      "Ġrarely": 7149,
      "Ġsoul": 7150,
      "Me": 7151,
      "Ġtheories": 7152,
      "Ġphenomenon": 7153,
      "net": 7154,
      "Ġcomplicated": 7155,
      "Ġmoves": 7156,
      "Ġpreventing": 7157,
      "Ġsurfaces": 7158,
      "Ġsession": 7159,
      "esides": 7160,
      "airy": 7161,
      "Ġsatellite": 7162,
      "Ġplenty": 7163,
      "ĠSil": 7164,
      "ĠAsian": 7165,
      "Ġowner": 7166,
      "CH": 7167,
      "Every": 7168,
      "Ġdesired": 7169,
      "Ġadvert": 7170,
      "ĠDar": 7171,
      "rary": 7172,
      "Ġmicrob": 7173,
      "ĠEffect": 7174,
      "Ġproof": 7175,
      "ĠSat": 7176,
      "Ġbringing": 7177,
      "ĠJac": 7178,
      "Ġwound": 7179,
      "Ġempt": 7180,
      "Ġpounds": 7181,
      "ĠHill": 7182,
      "Ġdischar": 7183,
      "Ġaccuracy": 7184,
      "ipedia": 7185,
      "Ġcollaboration": 7186,
      "ĠSometimes": 7187,
      "elesc": 7188,
      "Ġpregnant": 7189,
      "Ġinfect": 7190,
      "Ġconsidering": 7191,
      "Ġinn": 7192,
      "Ġserving": 7193,
      "Ġdys": 7194,
      "estion": 7195,
      "Ġdose": 7196,
      "Ġguidance": 7197,
      "Ġmaintained": 7198,
      "Ġbiology": 7199,
      "Ġasthma": 7200,
      "Ġingredients": 7201,
      "Ġprohib": 7202,
      "Ġphotos": 7203,
      "ĠThough": 7204,
      "Ġfix": 7205,
      "ani": 7206,
      "Ġshock": 7207,
      "'m": 7208,
      "Ġtube": 7209,
      "Ġfer": 7210,
      "Ġbath": 7211,
      "ano": 7212,
      "Ġimplemented": 7213,
      "ĠRom": 7214,
      "RA": 7215,
      "Ġcombat": 7216,
      "ĠPlease": 7217,
      "Ġdefense": 7218,
      "aired": 7219,
      "Ġjump": 7220,
      "ĠDistrict": 7221,
      "Ġcontemporary": 7222,
      "ollowing": 7223,
      "Ġbreeding": 7224,
      "example": 7225,
      "ĠCheck": 7226,
      "Ġcarrying": 7227,
      "Ġbees": 7228,
      "Ġinsert": 7229,
      "Ġsigned": 7230,
      "Ġconfirmed": 7231,
      "rowing": 7232,
      "Ġinfluenced": 7233,
      "ĠList": 7234,
      "Ġparas": 7235,
      "osh": 7236,
      "ĠEU": 7237,
      "apse": 7238,
      "ĠSpecial": 7239,
      "Ġartist": 7240,
      "ĠEp": 7241,
      "Ġpassing": 7242,
      "Ġadvantages": 7243,
      "Ġopposed": 7244,
      "incoln": 7245,
      "Ġ65": 7246,
      "Ġfairly": 7247,
      "71": 7248,
      "Ġimplications": 7249,
      "Ġuncertain": 7250,
      "Ġchest": 7251,
      "ĠâĨ": 7252,
      "ĠChange": 7253,
      "Ġinterpre": 7254,
      "forcement": 7255,
      "Ġcaptured": 7256,
      "trans": 7257,
      "Ġmessages": 7258,
      "Ġcommission": 7259,
      "Ġnitrogen": 7260,
      "Ġexperimental": 7261,
      "Ġid": 7262,
      "Ġtelevision": 7263,
      "Ġheating": 7264,
      "IDS": 7265,
      "Ġcompound": 7266,
      "Ġencouraged": 7267,
      "Ġmineral": 7268,
      "Am": 7269,
      "Ġattempts": 7270,
      "Ġirrit": 7271,
      "Ġmortality": 7272,
      "Ġaims": 7273,
      "ĠSecurity": 7274,
      "Ġinher": 7275,
      "Ġarts": 7276,
      "greg": 7277,
      "Ġdetection": 7278,
      "Ġclaimed": 7279,
      "Ġessentially": 7280,
      "Ġfourth": 7281,
      "ĠPlant": 7282,
      "Ġshapes": 7283,
      "Ġabsence": 7284,
      "Ġcriminal": 7285,
      "Ġknowing": 7286,
      "Ġvisitors": 7287,
      "otes": 7288,
      "ixture": 7289,
      "oga": 7290,
      "Ġelected": 7291,
      "Ġscore": 7292,
      "%.": 7293,
      "Ġconsiderable": 7294,
      "Ġtheore": 7295,
      "ĠHy": 7296,
      "Ġpanel": 7297,
      "ogether": 7298,
      "ĠLib": 7299,
      "Ġmathematics": 7300,
      "Ġpush": 7301,
      "Ġrespiratory": 7302,
      "Ġseconds": 7303,
      "ĠWindows": 7304,
      "Ġitem": 7305,
      "Ġevil": 7306,
      "ĠWord": 7307,
      "Ġwriters": 7308,
      "Ġexclus": 7309,
      "Ġabnormal": 7310,
      "Ġinfant": 7311,
      "medi": 7312,
      "heric": 7313,
      "raining": 7314,
      "Ġcareful": 7315,
      "Ġphosph": 7316,
      "Ġdelivered": 7317,
      "vard": 7318,
      "ĠMel": 7319,
      "Ġweapons": 7320,
      "Ġinterpretation": 7321,
      "ommod": 7322,
      "oom": 7323,
      "including": 7324,
      "Ġdiscrimination": 7325,
      "Ġdefend": 7326,
      "Today": 7327,
      "rene": 7328,
      "Ġimagine": 7329,
      "itals": 7330,
      "Ġassume": 7331,
      "ĠWho": 7332,
      "ĠGrand": 7333,
      "06": 7334,
      "ĠPop": 7335,
      "72": 7336,
      "ĠAngel": 7337,
      "ĠAdv": 7338,
      "eness": 7339,
      "Ġclar": 7340,
      "ovascular": 7341,
      "Ġproven": 7342,
      "ilation": 7343,
      "ĠPolic": 7344,
      "Ġremind": 7345,
      "ĠFurthermore": 7346,
      "Ġmicrosc": 7347,
      "ĠVen": 7348,
      "Ġcleaning": 7349,
      "Ġeffectiveness": 7350,
      "ĠChristmas": 7351,
      "Ġoverw": 7352,
      "roat": 7353,
      "Ġproved": 7354,
      "Ġcooking": 7355,
      "rency": 7356,
      "Ø§": 7357,
      "eren": 7358,
      "Ġpresents": 7359,
      "Ġwine": 7360,
      "oir": 7361,
      "itual": 7362,
      "Ġprincipal": 7363,
      "Ġfinished": 7364,
      "Ġangle": 7365,
      "Ġhealing": 7366,
      "Ġsubsequent": 7367,
      "ailed": 7368,
      "Ġrab": 7369,
      "Ġ1950": 7370,
      "sm": 7371,
      "olving": 7372,
      "ĠAND": 7373,
      "emia": 7374,
      "ĠOxford": 7375,
      "Ġreward": 7376,
      "Ġfocuses": 7377,
      "ruption": 7378,
      "Ġradical": 7379,
      "ĠAmong": 7380,
      "Ġgradually": 7381,
      "Ġstructural": 7382,
      "Ġexcessive": 7383,
      "outs": 7384,
      "ĠSecret": 7385,
      "Ġproceed": 7386,
      "Ġinformed": 7387,
      "ĠCentre": 7388,
      "73": 7389,
      "Ġfung": 7390,
      "ĠPet": 7391,
      "ĠCast": 7392,
      "ĠOpen": 7393,
      "oric": 7394,
      "Ġminute": 7395,
      "Ġstatistics": 7396,
      "Ġsurprising": 7397,
      "Ġtut": 7398,
      "Ġscreening": 7399,
      "ooking": 7400,
      "olesc": 7401,
      "ĠCoast": 7402,
      "Ġlie": 7403,
      "Ġcrew": 7404,
      "otype": 7405,
      "Ġbranches": 7406,
      "Ġhoney": 7407,
      "Ġtreating": 7408,
      "aning": 7409,
      "Ġuniversal": 7410,
      "Ġequally": 7411,
      "Ġplane": 7412,
      "Ġdisaster": 7413,
      "Ġanalys": 7414,
      "Ġstronger": 7415,
      "otton": 7416,
      "Ġplanned": 7417,
      "rous": 7418,
      "89": 7419,
      "Ġdealing": 7420,
      "amine": 7421,
      "ioxid": 7422,
      "iana": 7423,
      "Ġremoval": 7424,
      "Ġlake": 7425,
      "bar": 7426,
      "Ġformula": 7427,
      "Ġdifficulties": 7428,
      "Ġgut": 7429,
      "ĠDoes": 7430,
      "ĠSym": 7431,
      "theless": 7432,
      "Ġcomfortable": 7433,
      "Ġnewly": 7434,
      "uality": 7435,
      "Ġdeeper": 7436,
      "Or": 7437,
      "ĠCommunity": 7438,
      "essions": 7439,
      "df": 7440,
      "Ġtemple": 7441,
      "74": 7442,
      "Ġgained": 7443,
      "Ġtargets": 7444,
      "ĠYoung": 7445,
      "tles": 7446,
      "Ġracial": 7447,
      "NS": 7448,
      "Ġroughly": 7449,
      "Ġlaid": 7450,
      "ĠBill": 7451,
      "Ġdefect": 7452,
      "Ġfilter": 7453,
      "Ġteams": 7454,
      "ishop": 7455,
      "ĠDespite": 7456,
      "ĠFour": 7457,
      "produ": 7458,
      "Su": 7459,
      "ĠDen": 7460,
      "Ġmodified": 7461,
      "Ġmic": 7462,
      "ĠPo": 7463,
      "Ġinvestigation": 7464,
      "ĠColumbia": 7465,
      "ĠAdministration": 7466,
      "Ġterror": 7467,
      "Ġprinted": 7468,
      "ĠLar": 7469,
      "Ġbiom": 7470,
      "ptions": 7471,
      "Ġeliminate": 7472,
      "ograp": 7473,
      "Ġworship": 7474,
      "Ġsilver": 7475,
      "Ġunusual": 7476,
      "Ġtraditions": 7477,
      "Ġ400": 7478,
      "Ġguard": 7479,
      "ĠResp": 7480,
      "ĠLow": 7481,
      "riend": 7482,
      "Ġfed": 7483,
      "ĠÐ": 7484,
      "ĠCre": 7485,
      "illa": 7486,
      "Ġ1994": 7487,
      "Ġcosm": 7488,
      "ĠMen": 7489,
      "aska": 7490,
      "Ġflower": 7491,
      "ĠHeb": 7492,
      "Ġjudge": 7493,
      "ĠRock": 7494,
      "aming": 7495,
      "Ġturb": 7496,
      "Ġdecor": 7497,
      "ĠNetwork": 7498,
      "Ġconcerning": 7499,
      "Ġcham": 7500,
      "Ġregulation": 7501,
      "ĠNon": 7502,
      "Ġbranch": 7503,
      "Ġcompens": 7504,
      "ĠDirector": 7505,
      "Ġouter": 7506,
      "class": 7507,
      "Ġcharacterized": 7508,
      "Comm": 7509,
      "oured": 7510,
      "Ġsla": 7511,
      "Ġdates": 7512,
      "Ġmarks": 7513,
      "Ġhormone": 7514,
      "Ġbigger": 7515,
      "ĠSar": 7516,
      "Ġusual": 7517,
      "Ġprominent": 7518,
      "Ġordered": 7519,
      "Ġpeak": 7520,
      "Ġcab": 7521,
      "Ġcash": 7522,
      "icted": 7523,
      "ĠWorks": 7524,
      "amination": 7525,
      "Ġchlor": 7526,
      "Ġexamined": 7527,
      "ĠArticle": 7528,
      "ĠMS": 7529,
      "Ġphysician": 7530,
      "ersonal": 7531,
      "ĠFinally": 7532,
      "ounce": 7533,
      "ucky": 7534,
      "Ġgro": 7535,
      "zheimer": 7536,
      "oston": 7537,
      "Ġstead": 7538,
      "Ġsatisf": 7539,
      "Ġbreed": 7540,
      "Ġassigned": 7541,
      "Ġholes": 7542,
      "Ġconsume": 7543,
      "rox": 7544,
      "riz": 7545,
      "ĠMethod": 7546,
      "Ġremed": 7547,
      "ĠAdditionally": 7548,
      "print": 7549,
      "Ġobserve": 7550,
      "Ġinitially": 7551,
      "ĠKorea": 7552,
      "rance": 7553,
      "Ġmaybe": 7554,
      "Ġamazing": 7555,
      "86": 7556,
      "ĠFund": 7557,
      "Ġedition": 7558,
      "Ġcorrel": 7559,
      "Ġstores": 7560,
      "Ġye": 7561,
      "Ġserves": 7562,
      "Ġstuff": 7563,
      "eut": 7564,
      "Ġaccompan": 7565,
      "Ġneighborhood": 7566,
      "rat": 7567,
      "Ġfalls": 7568,
      "Ġencoun": 7569,
      "Ġstatements": 7570,
      "coming": 7571,
      "agraph": 7572,
      "Ġvarieties": 7573,
      "Ġcoc": 7574,
      "Ġplayer": 7575,
      "Ġslavery": 7576,
      "Ġwarning": 7577,
      "Ġimaging": 7578,
      "ĠSwed": 7579,
      "Ġdemands": 7580,
      "eli": 7581,
      "ĠIndust": 7582,
      "Ġroads": 7583,
      "Ġfaced": 7584,
      "effect": 7585,
      "ĠPrinc": 7586,
      "Ġhappening": 7587,
      "Ġspin": 7588,
      "ĠIran": 7589,
      "Ġunw": 7590,
      "Ġinnovation": 7591,
      "atial": 7592,
      "ĠSuper": 7593,
      "Ġsuffered": 7594,
      "ogenic": 7595,
      "ĠCell": 7596,
      "unicip": 7597,
      "arents": 7598,
      "Ġsharp": 7599,
      "Ġcaught": 7600,
      "Ġcorner": 7601,
      "OM": 7602,
      "Ġintent": 7603,
      "Ġclient": 7604,
      "ocial": 7605,
      "HD": 7606,
      "ude": 7607,
      "ĠWall": 7608,
      "ĠSund": 7609,
      "Ġflour": 7610,
      "oids": 7611,
      "Ġpestic": 7612,
      "rav": 7613,
      "bles": 7614,
      "ĠMD": 7615,
      "action": 7616,
      "Ġscientist": 7617,
      "Ġorbit": 7618,
      "ĠDev": 7619,
      "onym": 7620,
      "Ġerrors": 7621,
      "Ġmusical": 7622,
      "Ġindigenous": 7623,
      "Ġdiameter": 7624,
      "Ġtropical": 7625,
      "Ġexception": 7626,
      "orted": 7627,
      "Ġconsideration": 7628,
      "Ġtranslation": 7629,
      "Ġdecreased": 7630,
      "Ġtrigger": 7631,
      "ĠSupreme": 7632,
      "Ġidentification": 7633,
      "ĠTim": 7634,
      "Ġrose": 7635,
      "Ġearliest": 7636,
      "Ġisolated": 7637,
      "ansas": 7638,
      "ĠJeff": 7639,
      "akistan": 7640,
      "Ġthreats": 7641,
      "itarian": 7642,
      "iat": 7643,
      "Ġkilomet": 7644,
      "Ġgranted": 7645,
      "fts": 7646,
      "asm": 7647,
      "Ġanywhere": 7648,
      "ĠThree": 7649,
      "Ġexceed": 7650,
      "Ġfest": 7651,
      "Ġlearners": 7652,
      "isco": 7653,
      "ĠSign": 7654,
      "pling": 7655,
      "atively": 7656,
      "Ġperception": 7657,
      "enger": 7658,
      "CE": 7659,
      "Ġinspired": 7660,
      "Ġsubstantial": 7661,
      "ĠLincoln": 7662,
      "Ġtrends": 7663,
      "Ġspectrum": 7664,
      "html": 7665,
      "Ġcomplications": 7666,
      "Ġsubt": 7667,
      "Ġsitting": 7668,
      "Ġcopper": 7669,
      "Ġceremon": 7670,
      "Ġsup": 7671,
      "Ġvideos": 7672,
      "Ġmeasuring": 7673,
      "mers": 7674,
      "haust": 7675,
      "lvan": 7676,
      "ricts": 7677,
      "Ġcort": 7678,
      "lishing": 7679,
      "Ġdemocracy": 7680,
      "Ġgalax": 7681,
      "Note": 7682,
      "ĠAM": 7683,
      "Ġsenior": 7684,
      "ĠPen": 7685,
      "isted": 7686,
      "Ġschedule": 7687,
      "Ġslaves": 7688,
      "Ġwindows": 7689,
      "Ġsplit": 7690,
      "ĠFacebook": 7691,
      "Ġdriven": 7692,
      "requ": 7693,
      "ustain": 7694,
      "ĠChristians": 7695,
      "omer": 7696,
      "soft": 7697,
      "ĠJul": 7698,
      "ultane": 7699,
      "Ġdetected": 7700,
      "thm": 7701,
      "istical": 7702,
      "Comp": 7703,
      "Ġconfig": 7704,
      "Per": 7705,
      "Ġstations": 7706,
      "Ġoccurring": 7707,
      "raq": 7708,
      "Ġconj": 7709,
      "Ġdrought": 7710,
      "ĠKar": 7711,
      "icing": 7712,
      "Ġconcluded": 7713,
      "Ġrecover": 7714,
      "Ġsport": 7715,
      "Ġlistening": 7716,
      "Ġalter": 7717,
      "Ġconqu": 7718,
      "ogs": 7719,
      "ĠOrganization": 7720,
      "ima": 7721,
      "App": 7722,
      "People": 7723,
      "ĠIV": 7724,
      "elfare": 7725,
      "Ġsales": 7726,
      "Ġvariation": 7727,
      "ĠVer": 7728,
      "Ġheavily": 7729,
      "Ġplot": 7730,
      "Ġfishing": 7731,
      "Ġovercome": 7732,
      "ontal": 7733,
      "Ġevolved": 7734,
      "Ġliteracy": 7735,
      "Ġflows": 7736,
      "Ġprocessed": 7737,
      "ĠAmaz": 7738,
      "Ġcounsel": 7739,
      "Ġconference": 7740,
      "Ġembry": 7741,
      "Ġenorm": 7742,
      "igue": 7743,
      "icate": 7744,
      "Ġreveal": 7745,
      "ĠLiter": 7746,
      "Ġchannel": 7747,
      "otal": 7748,
      "Ed": 7749,
      "?\"": 7750,
      "Ġmountains": 7751,
      "Ġaccommod": 7752,
      "iary": 7753,
      "Ġbrows": 7754,
      "Ġpit": 7755,
      "ĠFather": 7756,
      "Ġhazard": 7757,
      "Ġscar": 7758,
      "just": 7759,
      "ENT": 7760,
      "night": 7761,
      "Ġcorrectly": 7762,
      "rays": 7763,
      "ĠNever": 7764,
      "ercury": 7765,
      "iop": 7766,
      "AA": 7767,
      "Ġgrain": 7768,
      "abeth": 7769,
      "ĠMinister": 7770,
      "Ġeditor": 7771,
      "Ġpoem": 7772,
      "Ġrelie": 7773,
      "iture": 7774,
      "rot": 7775,
      "Ġwheel": 7776,
      "Ġadm": 7777,
      "Ġfinds": 7778,
      "vin": 7779,
      "ĠLo": 7780,
      "She": 7781,
      "Ġdirected": 7782,
      "sylvan": 7783,
      "Ġdriver": 7784,
      "Ġadds": 7785,
      "56": 7786,
      "chen": 7787,
      "asant": 7788,
      "Ġsettlement": 7789,
      "Ġritual": 7790,
      "Ġidentifying": 7791,
      "ĠEst": 7792,
      "ĠType": 7793,
      "Ġdynamic": 7794,
      "ostic": 7795,
      "ĠEr": 7796,
      "Ġabilities": 7797,
      "quir": 7798,
      "Ġagent": 7799,
      "Ġrepresentation": 7800,
      "03": 7801,
      "ĠStar": 7802,
      "Ġpeoples": 7803,
      "Ġlights": 7804,
      "real": 7805,
      "ruit": 7806,
      "otherapy": 7807,
      "Ġgirl": 7808,
      "sell": 7809,
      "Ġsunlight": 7810,
      "ĠSir": 7811,
      "Ġacres": 7812,
      "ĠSafety": 7813,
      "ĠEngineering": 7814,
      "agon": 7815,
      "Ġbacterial": 7816,
      "ĠAlzheimer": 7817,
      "erman": 7818,
      "Ġarray": 7819,
      "Ġampl": 7820,
      "Ġobjectives": 7821,
      "Ġgrows": 7822,
      "Ġhence": 7823,
      "Ġbless": 7824,
      "Ġdisabilities": 7825,
      "Ġdesert": 7826,
      "Ġgrid": 7827,
      "urolog": 7828,
      "Ġexperiencing": 7829,
      "Ġautomatically": 7830,
      "Ġov": 7831,
      "Ġgiant": 7832,
      "Ġepis": 7833,
      "Ġdisrupt": 7834,
      "Ġbomb": 7835,
      "Ġhosp": 7836,
      "ĠPot": 7837,
      "Ġ1992": 7838,
      "Ġfunctioning": 7839,
      "Ġvocabulary": 7840,
      "Ġmg": 7841,
      "Ġintensity": 7842,
      "Ġathlet": 7843,
      "Ġnice": 7844,
      "acent": 7845,
      "Ġasc": 7846,
      "Ġstrengthen": 7847,
      "Ear": 7848,
      "Ġheads": 7849,
      "Ġrect": 7850,
      "Ġalph": 7851,
      "ĠDou": 7852,
      "Ġobservation": 7853,
      "Ġvitamins": 7854,
      "ĠSimilar": 7855,
      "Ġsuscept": 7856,
      "igate": 7857,
      "forest": 7858,
      "ĠCOVID": 7859,
      "Ġaged": 7860,
      "Col": 7861,
      "esh": 7862,
      "aws": 7863,
      "Ġviewed": 7864,
      "Ġstability": 7865,
      "Ġprinting": 7866,
      "Ġ)": 7867,
      "ĠUr": 7868,
      "Ġemphasis": 7869,
      "Ã¢": 7870,
      "Ġfatty": 7871,
      "ali": 7872,
      "Ġweakness": 7873,
      "ĠLead": 7874,
      "Ġperm": 7875,
      "gence": 7876,
      "ĠMult": 7877,
      "Ġpin": 7878,
      "ĠTre": 7879,
      "ĠCP": 7880,
      "Ġinhabit": 7881,
      "Ġargue": 7882,
      "Ġregardless": 7883,
      "Ġpurs": 7884,
      "Ġsuperior": 7885,
      "Ġbag": 7886,
      "Ġpla": 7887,
      "09": 7888,
      "Ġprovider": 7889,
      "Ġunion": 7890,
      "def": 7891,
      "ĠMoon": 7892,
      "Ġvisited": 7893,
      "Ġduty": 7894,
      "Ġdietary": 7895,
      "Ġworst": 7896,
      "ĠProtection": 7897,
      "ildren": 7898,
      "ĠSand": 7899,
      "mm": 7900,
      "Ġgases": 7901,
      "ieval": 7902,
      "plete": 7903,
      "ĠFigure": 7904,
      "ĠOhio": 7905,
      "ette": 7906,
      "ĠConservation": 7907,
      "allow": 7908,
      "Ġextend": 7909,
      "Ġvan": 7910,
      "ĠForce": 7911,
      "Ġmeals": 7912,
      "Ġaddressed": 7913,
      "lete": 7914,
      "Ġcontribution": 7915,
      "icy": 7916,
      "Ġmir": 7917,
      "Ġengineers": 7918,
      "ura": 7919,
      "04": 7920,
      "Ġassets": 7921,
      "About": 7922,
      "Ġreaching": 7923,
      "ila": 7924,
      "Car": 7925,
      "ĠAT": 7926,
      "Ġwrites": 7927,
      "Ġcattle": 7928,
      "ba": 7929,
      "Ġ38": 7930,
      "Ġslave": 7931,
      "Ġoldest": 7932,
      "Ġcarbohyd": 7933,
      "Ġcontributed": 7934,
      "ĠMah": 7935,
      "ĠIns": 7936,
      "Ġautism": 7937,
      "Ġmoderate": 7938,
      "Ġplanets": 7939,
      "Ġcalling": 7940,
      "Ġprofit": 7941,
      "Ġhidden": 7942,
      "athered": 7943,
      "Ġlaser": 7944,
      "CR": 7945,
      "ĠCross": 7946,
      "Ġsmell": 7947,
      "Ġeducators": 7948,
      "ographical": 7949,
      "Ġcommitment": 7950,
      "Ġstrain": 7951,
      "ĠJo": 7952,
      "ĠOper": 7953,
      "Ġregarded": 7954,
      "Ġpolar": 7955,
      "Ġquarter": 7956,
      "dr": 7957,
      "ĠLearn": 7958,
      "AB": 7959,
      "',": 7960,
      "door": 7961,
      "Ġforming": 7962,
      "Ġcord": 7963,
      "Ġstake": 7964,
      "ĠJohnson": 7965,
      "Ġacquired": 7966,
      "Ġtong": 7967,
      "sylvania": 7968,
      "Ġtaxes": 7969,
      "ĠBattle": 7970,
      "ĠHospital": 7971,
      "Ġantioxid": 7972,
      "Get": 7973,
      "Ġinnovative": 7974,
      "brid": 7975,
      "ĠCurrent": 7976,
      "atal": 7977,
      "ĠWil": 7978,
      "Ġthereby": 7979,
      "ega": 7980,
      "Ġappointed": 7981,
      "ĠDom": 7982,
      "holders": 7983,
      "Ġlymph": 7984,
      "rolled": 7985,
      "Ġ1993": 7986,
      "Ġrational": 7987,
      "Ġinterface": 7988,
      "Part": 7989,
      "Ġmathematical": 7990,
      "Ġvaccines": 7991,
      "ĠGeorgia": 7992,
      "Ġinsight": 7993,
      "ĠNote": 7994,
      "Ġhardware": 7995,
      "Ġprotecting": 7996,
      "ĠQueen": 7997,
      "69": 7998,
      "etary": 7999,
      "irms": 8000,
      "Ġopposition": 8001,
      "ĠReading": 8002,
      "Ġillegal": 8003,
      "Ġalive": 8004,
      "ĠBoston": 8005,
      "ĠHebrew": 8006,
      "ĠFire": 8007,
      "08": 8008,
      "Ġmouse": 8009,
      "ĠDivision": 8010,
      "uten": 8011,
      "asts": 8012,
      "century": 8013,
      "May": 8014,
      "neys": 8015,
      "Ġwisdom": 8016,
      "yer": 8017,
      "Ġlists": 8018,
      "rection": 8019,
      "erty": 8020,
      "Ġseparated": 8021,
      "Ġcovering": 8022,
      "Ġinterventions": 8023,
      "Ġpanels": 8024,
      "Ġpreced": 8025,
      "itory": 8026,
      "ĠPakistan": 8027,
      "Ġworkshe": 8028,
      "Ġmyst": 8029,
      "icular": 8030,
      "antly": 8031,
      "Ġ33": 8032,
      "Ġresid": 8033,
      "quar": 8034,
      "ĠAuthor": 8035,
      "Ġmanufacturers": 8036,
      "agen": 8037,
      "Ġantibiotics": 8038,
      "ĠGr": 8039,
      "Ġmixture": 8040,
      "angle": 8041,
      "ailable": 8042,
      "Ġoverwhel": 8043,
      "64": 8044,
      "hea": 8045,
      "har": 8046,
      "Ġversions": 8047,
      "usalem": 8048,
      "Ġles": 8049,
      "Ġven": 8050,
      "Ġuniform": 8051,
      "ptic": 8052,
      "Ġpermission": 8053,
      "Ġcontainer": 8054,
      "ĠPalest": 8055,
      "ĠIraq": 8056,
      "Ġauthent": 8057,
      "una": 8058,
      "Ġelder": 8059,
      "Ġseat": 8060,
      "68": 8061,
      "cyclopedia": 8062,
      "Ġconserv": 8063,
      "Also": 8064,
      "lines": 8065,
      "ĠLight": 8066,
      "Step": 8067,
      "Ġplain": 8068,
      "Ġaffecting": 8069,
      "Ġcharged": 8070,
      "Ġadverse": 8071,
      "endment": 8072,
      "eping": 8073,
      "ĠRoad": 8074,
      "ĠDutch": 8075,
      "ĠStart": 8076,
      "ĠTom": 8077,
      "ourse": 8078,
      "izabeth": 8079,
      "Ġwheat": 8080,
      "Ġ48": 8081,
      "apor": 8082,
      "Ġran": 8083,
      "Ġdecay": 8084,
      "02": 8085,
      "Ġadvent": 8086,
      "anger": 8087,
      "angered": 8088,
      "Ġtowns": 8089,
      "Ġtribes": 8090,
      "ĠOnline": 8091,
      "Ġdescript": 8092,
      "ĠChapter": 8093,
      "Ġconcentrations": 8094,
      "Ġproviders": 8095,
      "Ġsurge": 8096,
      "Ġcooling": 8097,
      "ĠWithout": 8098,
      "Pre": 8099,
      "Ġrac": 8100,
      "Ġquantity": 8101,
      "ĠDC": 8102,
      "Ġavailability": 8103,
      "ipher": 8104,
      "ĠNov": 8105,
      "],": 8106,
      "Ġcopyright": 8107,
      "ĠHand": 8108,
      "Ġimprovements": 8109,
      "uits": 8110,
      "Ġsizes": 8111,
      ".).": 8112,
      "iva": 8113,
      "Ġinteractive": 8114,
      "oli": 8115,
      "zym": 8116,
      "ĠMichigan": 8117,
      "ĠUnfortunately": 8118,
      "ocolate": 8119,
      "Ġdance": 8120,
      "Ġconsciousness": 8121,
      "Ġprogramme": 8122,
      "59": 8123,
      "Ġflying": 8124,
      "Ġattach": 8125,
      "MP": 8126,
      "uset": 8127,
      "aren": 8128,
      "Ġexped": 8129,
      "ĠSet": 8130,
      "adel": 8131,
      "Ġpreserve": 8132,
      "Ġvel": 8133,
      "Ġtables": 8134,
      "Com": 8135,
      "Ġmosquit": 8136,
      "Ġlip": 8137,
      "ĠHor": 8138,
      "Ġphrase": 8139,
      "Ġtrauma": 8140,
      "Last": 8141,
      "amples": 8142,
      "ĠTop": 8143,
      "Ġfarms": 8144,
      "Ġquiet": 8145,
      "Ġfats": 8146,
      "Ġbehavioral": 8147,
      "Ġscores": 8148,
      "http": 8149,
      "Ġfra": 8150,
      "Ġsimultane": 8151,
      "Ġ1991": 8152,
      "iments": 8153,
      "ĠColl": 8154,
      "archy": 8155,
      "Ġchemistry": 8156,
      "Ġparameters": 8157,
      "Ġfalling": 8158,
      "ĠMath": 8159,
      "Ġdeficiency": 8160,
      "ĠHeart": 8161,
      "asma": 8162,
      "ĠSpirit": 8163,
      "Ġexhaust": 8164,
      "ĠPrevention": 8165,
      "Pr": 8166,
      "eries": 8167,
      "Ġburied": 8168,
      "eting": 8169,
      "ĠLy": 8170,
      "ĠTable": 8171,
      "rical": 8172,
      "Ġsensors": 8173,
      "urches": 8174,
      "Ġstones": 8175,
      "Ġmembrane": 8176,
      "Ġenables": 8177,
      "Ġaimed": 8178,
      "Ġsensitivity": 8179,
      "Ġtumor": 8180,
      "usetts": 8181,
      "ĠLess": 8182,
      "Ġcomprom": 8183,
      "Ġnutrient": 8184,
      "ĠFind": 8185,
      "achusetts": 8186,
      "irth": 8187,
      "imm": 8188,
      "Ġupdated": 8189,
      "Where": 8190,
      "EF": 8191,
      "Ġstopped": 8192,
      "Ġcommittee": 8193,
      "Ġcompost": 8194,
      "ĠPlay": 8195,
      "Ġbelieves": 8196,
      "Ġconsumed": 8197,
      "Ġintroduce": 8198,
      "ĠPolicy": 8199,
      "Ġcoverage": 8200,
      "Ġsched": 8201,
      "Ġmothers": 8202,
      "ĠSurvey": 8203,
      "iti": 8204,
      "Ġinequ": 8205,
      "Ġkilling": 8206,
      "ĠIslamic": 8207,
      ".'": 8208,
      "ulpt": 8209,
      "Ġlens": 8210,
      "uting": 8211,
      "ĠSpring": 8212,
      "Ġhunting": 8213,
      "Ġprotective": 8214,
      "hus": 8215,
      "Ġharder": 8216,
      "Ġdramatic": 8217,
      "Ġarguments": 8218,
      "Ġorders": 8219,
      "ao": 8220,
      "ĠAssess": 8221,
      "Ġpointed": 8222,
      "ema": 8223,
      "ĠUt": 8224,
      "Ġcreatures": 8225,
      "Ġpand": 8226,
      "Ġlosses": 8227,
      "through": 8228,
      "Ġlungs": 8229,
      "Ġreporting": 8230,
      "Ġsupplements": 8231,
      "Ġresearcher": 8232,
      "Ġspray": 8233,
      "ugg": 8234,
      "Ġowned": 8235,
      "Hist": 8236,
      "ician": 8237,
      "Art": 8238,
      "opher": 8239,
      "ĠLee": 8240,
      "Ġrobot": 8241,
      "ĠPolit": 8242,
      "IF": 8243,
      "ĠChristianity": 8244,
      "Ġmigration": 8245,
      "ĠScotland": 8246,
      "Ġcharacteristic": 8247,
      "Ġthreatened": 8248,
      "CP": 8249,
      "urning": 8250,
      "Ġfuels": 8251,
      "ptom": 8252,
      "Ġchap": 8253,
      "Ġfinger": 8254,
      "Ġsubstit": 8255,
      "Ġwonderful": 8256,
      "Ġexciting": 8257,
      "Ġthermal": 8258,
      "ĠTry": 8259,
      "Ġwaiting": 8260,
      "Ġjur": 8261,
      "ĠPur": 8262,
      "Ġpursu": 8263,
      "Ġcolonial": 8264,
      "Ġheritage": 8265,
      "ecess": 8266,
      "Ġvegetation": 8267,
      "Ġcommunications": 8268,
      "Ġtob": 8269,
      "ĠJerusalem": 8270,
      "Ġom": 8271,
      "Ġcure": 8272,
      "Ġ1930": 8273,
      "raham": 8274,
      "Ġnom": 8275,
      "Ġnarrative": 8276,
      "HA": 8277,
      "mod": 8278,
      "Ġshoot": 8279,
      "Ġaudio": 8280,
      "Ġneutral": 8281,
      "Ġequation": 8282,
      "ependent": 8283,
      "Ġmine": 8284,
      "Ġevening": 8285,
      "Ġroyal": 8286,
      "Ġfaces": 8287,
      "Ġbatteries": 8288,
      "Ġphysically": 8289,
      "disc": 8290,
      "ricted": 8291,
      "ĠHead": 8292,
      "ĠpH": 8293,
      "Ġdegrad": 8294,
      "advant": 8295,
      "ĠColorado": 8296,
      "Ġfellow": 8297,
      "wan": 8298,
      "alities": 8299,
      "EE": 8300,
      "Ġkeeps": 8301,
      "Ġplanting": 8302,
      "Ġton": 8303,
      "HS": 8304,
      "Ġachievement": 8305,
      "gien": 8306,
      "kind": 8307,
      ")|": 8308,
      "ĠPennsylvania": 8309,
      "Ġvertical": 8310,
      "ĠBusiness": 8311,
      "Ġofficer": 8312,
      "Ġtechnological": 8313,
      "Ġchances": 8314,
      "Ġ55": 8315,
      "ĠRh": 8316,
      "Ġelsewhere": 8317,
      "Ġinitiative": 8318,
      "Pub": 8319,
      "Ġhumanity": 8320,
      "Ġpersonality": 8321,
      "Ġparad": 8322,
      "Ġsocieties": 8323,
      "ĠParliament": 8324,
      "asy": 8325,
      "Ġargued": 8326,
      "Ġspr": 8327,
      "Ġcolonies": 8328,
      "Ġhouseholds": 8329,
      "Ġengines": 8330,
      "ĠModern": 8331,
      "bel": 8332,
      "Ġfought": 8333,
      "Ġordinary": 8334,
      "ĠPhilipp": 8335,
      "apes": 8336,
      "Ġsteam": 8337,
      "Ġdress": 8338,
      "mann": 8339,
      "Ġadolesc": 8340,
      "zer": 8341,
      "lymp": 8342,
      "ĠModel": 8343,
      "Ġcardiovascular": 8344,
      "ĠWay": 8345,
      "Ġcalculated": 8346,
      "Ġpropag": 8347,
      "Ġurine": 8348,
      "orig": 8349,
      "Ġreasonable": 8350,
      "Ġadvis": 8351,
      "Ġdrag": 8352,
      "Ġease": 8353,
      "Ġflash": 8354,
      "Ġparagraph": 8355,
      "bean": 8356,
      "Ġ;": 8357,
      "Ġherb": 8358,
      "Ġproductivity": 8359,
      "Ġexpanded": 8360,
      "Ġdrivers": 8361,
      "Ġgrounds": 8362,
      "ĠCho": 8363,
      "Ã¤": 8364,
      "gener": 8365,
      "utation": 8366,
      "pled": 8367,
      "ĠCambridge": 8368,
      "Ġecological": 8369,
      "Ġcas": 8370,
      "ĠAL": 8371,
      "Ġexecutive": 8372,
      "ami": 8373,
      "Ġestablishment": 8374,
      "iations": 8375,
      "98": 8376,
      "Ġdimens": 8377,
      "Ġstreets": 8378,
      "Ġboundaries": 8379,
      "adow": 8380,
      "Ġbutton": 8381,
      "Ġperforming": 8382,
      "Ġanalyze": 8383,
      "Ġcustomer": 8384,
      "John": 8385,
      "Ġinvestigate": 8386,
      "Ġtor": 8387,
      "Ġengaging": 8388,
      "Ġdirections": 8389,
      "OP": 8390,
      "eor": 8391,
      "Ġorb": 8392,
      "Ġtobacco": 8393,
      "Ġdisability": 8394,
      "ĠEdward": 8395,
      "Ġtick": 8396,
      "Ġsevent": 8397,
      "Ġmanaging": 8398,
      "Ġliterary": 8399,
      "ushing": 8400,
      "Ġtransmit": 8401,
      "Ġexhibit": 8402,
      "Ġtemporary": 8403,
      "ĠBiology": 8404,
      "Ġcyber": 8405,
      "Ġdim": 8406,
      "Ġreverse": 8407,
      "Ġmovie": 8408,
      "Under": 8409,
      "ĠCorn": 8410,
      "Ġlogic": 8411,
      "Ġcancers": 8412,
      "Ġeru": 8413,
      "Ġentertain": 8414,
      "ĠGulf": 8415,
      "box": 8416,
      "Ġfing": 8417,
      "Ġguess": 8418,
      "Ġexpectations": 8419,
      "Ġstyles": 8420,
      "Ġdominant": 8421,
      "ĠBooks": 8422,
      "Ġemerging": 8423,
      "endar": 8424,
      "Ġvariations": 8425,
      "Ġbeat": 8426,
      "Ġethical": 8427,
      "elve": 8428,
      "berry": 8429,
      "Ġsodium": 8430,
      "BT": 8431,
      "bell": 8432,
      "ĠCard": 8433,
      "ĠMassachusetts": 8434,
      "uan": 8435,
      "Ġirrig": 8436,
      "ranean": 8437,
      "Ġwatching": 8438,
      "Ġfur": 8439,
      "Ġdism": 8440,
      "Ġequality": 8441,
      "ĠHarvard": 8442,
      "Ġempty": 8443,
      "Ġspoken": 8444,
      "Ġgeomet": 8445,
      "ĠIdent": 8446,
      "ĠImp": 8447,
      "ĠÂ£": 8448,
      "Ġsentences": 8449,
      "Ġsummary": 8450,
      "thod": 8451,
      "ĠSS": 8452,
      "Ġaddiction": 8453,
      "Ġextension": 8454,
      "you": 8455,
      "Ġembra": 8456,
      "ĠOtt": 8457,
      "Ġincident": 8458,
      "ĠFrancisco": 8459,
      "uther": 8460,
      "07": 8461,
      "mentia": 8462,
      "aints": 8463,
      "rize": 8464,
      "ati": 8465,
      "Ġgast": 8466,
      "rix": 8467,
      "oul": 8468,
      "ĠAgain": 8469,
      "ĠLittle": 8470,
      "Ġtempor": 8471,
      "Ġcorresponding": 8472,
      "ĠHim": 8473,
      "Sim": 8474,
      "Ġclassified": 8475,
      "Ġfocusing": 8476,
      "ogy": 8477,
      "Ġremoving": 8478,
      "Ġassumed": 8479,
      "Ġgenome": 8480,
      "Ġflexible": 8481,
      "Ġinterior": 8482,
      "Ġexploration": 8483,
      "Ġdeeply": 8484,
      "Ġwebsites": 8485,
      "Ġcann": 8486,
      "ĠImm": 8487,
      "Ġclothes": 8488,
      "Ġcolony": 8489,
      "Ġpriority": 8490,
      "RC": 8491,
      "hire": 8492,
      "iger": 8493,
      "ĠIslands": 8494,
      "Ġheaven": 8495,
      "ĠSystems": 8496,
      "Cons": 8497,
      "actions": 8498,
      "ĠArctic": 8499,
      "Ġenormous": 8500,
      "Ġduration": 8501,
      "ĠBal": 8502,
      "Ġperceived": 8503,
      "Ġfo": 8504,
      "ĠAnalysis": 8505,
      "uum": 8506,
      "58": 8507,
      "Ġexplicit": 8508,
      "Ġtelling": 8509,
      "Ġemotion": 8510,
      "Ġdefinitely": 8511,
      "jo": 8512,
      "Ġscope": 8513,
      "DS": 8514,
      "ĠBack": 8515,
      "ĠIT": 8516,
      "ĠClick": 8517,
      "Ġgrains": 8518,
      "ivest": 8519,
      "idal": 8520,
      "Ġcapabilities": 8521,
      "Ġquantum": 8522,
      "Ġnewspaper": 8523,
      "Ġconverted": 8524,
      "Are": 8525,
      "Ġspinal": 8526,
      "Ġoxid": 8527,
      "Ġpilot": 8528,
      "Ġattitude": 8529,
      "Ġpainful": 8530,
      "Co": 8531,
      "Ġbeans": 8532,
      "Ġlinear": 8533,
      "Ġpsychology": 8534,
      "Ġclock": 8535,
      "ĠJustice": 8536,
      "Ġentit": 8537,
      "'.": 8538,
      "Ġinfants": 8539,
      "foot": 8540,
      "Ġaccord": 8541,
      "Ġensuring": 8542,
      "anted": 8543,
      "ĠLast": 8544,
      "Ġtargeted": 8545,
      "Ġsettled": 8546,
      "Ġgravity": 8547,
      "Sm": 8548,
      "ashes": 8549,
      "Ref": 8550,
      "ĠFar": 8551,
      "ĠConference": 8552,
      "Ġminds": 8553,
      "Ġresc": 8554,
      "Ġdense": 8555,
      "Ġentering": 8556,
      "Ġdetermining": 8557,
      "Ġcontributions": 8558,
      "Ġrecycling": 8559,
      "zyme": 8560,
      "Ġaccompanied": 8561,
      "%,": 8562,
      "Ġhall": 8563,
      "Ġpreferred": 8564,
      "ensed": 8565,
      "Ġuniversities": 8566,
      "Ġbare": 8567,
      "Ġmyself": 8568,
      "Ġgent": 8569,
      "Ġbiodiversity": 8570,
      "Ġmarketing": 8571,
      "Ġboat": 8572,
      "Ġmetals": 8573,
      "Ġsaved": 8574,
      "Ġpoetry": 8575,
      "Ġcourts": 8576,
      "Before": 8577,
      "Ġecosystems": 8578,
      "agan": 8579,
      "Ġabstract": 8580,
      "borne": 8581,
      "Ġwider": 8582,
      "Ġreferences": 8583,
      "Ġlowest": 8584,
      "bec": 8585,
      "Ġcrack": 8586,
      "Ġfeels": 8587,
      "otion": 8588,
      "Ġstrike": 8589,
      "Ġconclus": 8590,
      "hemistry": 8591,
      "Ġdies": 8592,
      "play": 8593,
      "Ġadapted": 8594,
      "Ġ39": 8595,
      "Ġ37": 8596,
      "aret": 8597,
      "Ġglac": 8598,
      "Ġlifetime": 8599,
      "Ġclassical": 8600,
      "Ġrequirement": 8601,
      "words": 8602,
      "enced": 8603,
      "Ġtens": 8604,
      "Ġchair": 8605,
      "ipe": 8606,
      "ĠConfed": 8607,
      "Ġpromise": 8608,
      "CL": 8609,
      "Ġpy": 8610,
      "Ġastronom": 8611,
      "Ġevident": 8612,
      "Ġcontinuing": 8613,
      "Ġ95": 8614,
      "Ġsustainability": 8615,
      "Ġsad": 8616,
      "67": 8617,
      "Ġtip": 8618,
      "Ġdifferently": 8619,
      "Ġweigh": 8620,
      "ĠOlymp": 8621,
      "Ġprobability": 8622,
      "Ġprey": 8623,
      "Ġpromoting": 8624,
      "ifice": 8625,
      "Ġfacilitate": 8626,
      ")||": 8627,
      "Ġpassion": 8628,
      "Ġfet": 8629,
      "istant": 8630,
      "Ġshaped": 8631,
      "Ġremarkable": 8632,
      "mentation": 8633,
      "books": 8634,
      "ĠEPA": 8635,
      "ailing": 8636,
      "Ġacting": 8637,
      "Ġattribut": 8638,
      "ket": 8639,
      "Ġcotton": 8640,
      "Ġdrinks": 8641,
      "Ġtrick": 8642,
      "ĠBu": 8643,
      "ĠDown": 8644,
      "Ġfatigue": 8645,
      "Ġphotographs": 8646,
      "world": 8647,
      "Ġmanifest": 8648,
      "ĠElizabeth": 8649,
      "ĠMur": 8650,
      "Ġhormones": 8651,
      "kl": 8652,
      "Ġcow": 8653,
      "Ġlibr": 8654,
      "ĠGreece": 8655,
      "Ġloose": 8656,
      "ĠObs": 8657,
      "Ġnotion": 8658,
      "EG": 8659,
      "Ġmanager": 8660,
      "fulness": 8661,
      "Ġfires": 8662,
      "ĠDO": 8663,
      "Ġwithdraw": 8664,
      "ouds": 8665,
      "Ġprovince": 8666,
      "Ġtort": 8667,
      "Ġviolent": 8668,
      "ĠPoint": 8669,
      "ĠBang": 8670,
      "Ġdistricts": 8671,
      "Using": 8672,
      "Ġgods": 8673,
      "encing": 8674,
      "was": 8675,
      "Ġsafely": 8676,
      "Ġlosing": 8677,
      "Ġtransmitted": 8678,
      "ĠOl": 8679,
      "ĠWal": 8680,
      "ĠOrig": 8681,
      "ĠSenate": 8682,
      "Ġranging": 8683,
      "ivestock": 8684,
      "Each": 8685,
      "Just": 8686,
      "ifted": 8687,
      "ĠIndeed": 8688,
      "rin": 8689,
      "made": 8690,
      "Ġapplying": 8691,
      "Ġexisted": 8692,
      "Ġkingdom": 8693,
      "text": 8694,
      "ref": 8695,
      "Ġlabour": 8696,
      "ĠHawai": 8697,
      "Ġintention": 8698,
      "ĠSection": 8699,
      "Ġcollective": 8700,
      "mented": 8701,
      "stant": 8702,
      "Ġasp": 8703,
      "ĠAsse": 8704,
      "Ne": 8705,
      "ĠAmazon": 8706,
      "Â®": 8707,
      "ĠBa": 8708,
      "Ġraising": 8709,
      "Ġclub": 8710,
      "imp": 8711,
      "ĠPass": 8712,
      "Ġbee": 8713,
      "Ġrepresentative": 8714,
      "rh": 8715,
      "Ġpill": 8716,
      "ĠEconomic": 8717,
      "Ġmarg": 8718,
      "ĠLaboratory": 8719,
      "63": 8720,
      "Ġassert": 8721,
      "Ġcomputing": 8722,
      "operative": 8723,
      "ĠSaint": 8724,
      "Ġbuff": 8725,
      "erts": 8726,
      "Ġenterpr": 8727,
      "Ġappeal": 8728,
      "aka": 8729,
      "fast": 8730,
      "sor": 8731,
      "Ġoccas": 8732,
      "eutic": 8733,
      "Ġdiffer": 8734,
      "Ġcelebrated": 8735,
      "Ġsongs": 8736,
      "Ġtransc": 8737,
      "ologically": 8738,
      "Ġcoat": 8739,
      "havior": 8740,
      "Ġwouldn": 8741,
      "assium": 8742,
      "Ġsculpt": 8743,
      "Ġaging": 8744,
      "Ġhabitats": 8745,
      "Ġprayer": 8746,
      "Ġbegun": 8747,
      "feed": 8748,
      "Ġtack": 8749,
      "ĠTO": 8750,
      "Ġstood": 8751,
      "roud": 8752,
      "MA": 8753,
      "Ġspots": 8754,
      "Ġcraft": 8755,
      "ĠFact": 8756,
      "Ġvirtually": 8757,
      "section": 8758,
      "ĠNavy": 8759,
      "!!": 8760,
      "Ġconstra": 8761,
      "Ġprofile": 8762,
      "Ġdevast": 8763,
      "Ġsessions": 8764,
      "Ġdairy": 8765,
      "Ġconvey": 8766,
      "ĠProcess": 8767,
      "ĠLos": 8768,
      "Ġvictory": 8769,
      "Ġneurons": 8770,
      "aware": 8771,
      "53": 8772,
      "ĠWildlife": 8773,
      "ĠRNA": 8774,
      "usive": 8775,
      "Ġ2021": 8776,
      "ĠCirc": 8777,
      "52": 8778,
      "zo": 8779,
      "Ġobst": 8780,
      "Ġthread": 8781,
      "ĠPu": 8782,
      "ĠLin": 8783,
      "ĠSunday": 8784,
      "Ġseriously": 8785,
      "inois": 8786,
      "fe": 8787,
      "ceans": 8788,
      "Ġclassic": 8789,
      "Who": 8790,
      "Ġnutritional": 8791,
      "Ġchromos": 8792,
      "icking": 8793,
      "Ġintegration": 8794,
      "Ġclients": 8795,
      "ĠBlue": 8796,
      "Ġbarriers": 8797,
      "Ġpurchased": 8798,
      "Ġfisher": 8799,
      "Ġaggressive": 8800,
      "Ġdil": 8801,
      "Ġdiarr": 8802,
      "Ġmature": 8803,
      "Ġconvert": 8804,
      "Ġfriendly": 8805,
      "Ġwearing": 8806,
      "Ġlimitations": 8807,
      "ython": 8808,
      "ĠContin": 8809,
      "ĠSolar": 8810,
      "Ġlock": 8811,
      "Ġsensor": 8812,
      "Ġapparently": 8813,
      "Ġprivile": 8814,
      "ĠAgriculture": 8815,
      "Ġtension": 8816,
      "this": 8817,
      "Ġunn": 8818,
      "specific": 8819,
      "ĠWikipedia": 8820,
      "thew": 8821,
      "lights": 8822,
      "Ġcul": 8823,
      "Ġbalanced": 8824,
      "ĠTestament": 8825,
      "Ġcomplexity": 8826,
      "amil": 8827,
      "Ġsymbols": 8828,
      "Ġengagement": 8829,
      "Ġbarrier": 8830,
      "Ġwelfare": 8831,
      "ĠJacob": 8832,
      "ĠCr": 8833,
      "Ġversus": 8834,
      "ĠGar": 8835,
      "Ġsuit": 8836,
      "Ġgrades": 8837,
      "awa": 8838,
      "awn": 8839,
      "Ġdiscussions": 8840,
      "Ġliterally": 8841,
      "Ġhypothesis": 8842,
      "Ġtone": 8843,
      "ĠStan": 8844,
      "Ġpupils": 8845,
      "itting": 8846,
      "uscript": 8847,
      "ĠFred": 8848,
      "Ġscheme": 8849,
      "Ġviral": 8850,
      "Then": 8851,
      "'d": 8852,
      "umer": 8853,
      "Ġactively": 8854,
      "Ġ34": 8855,
      "Ġpione": 8856,
      "Ġreadily": 8857,
      "dep": 8858,
      "Ġarmed": 8859,
      "Ġ1989": 8860,
      "Ġchose": 8861,
      "Ġtab": 8862,
      "ĠCode": 8863,
      "ĠConsider": 8864,
      "Ġimmigrants": 8865,
      "Ġtongue": 8866,
      "Ġ1920": 8867,
      "Ġrestore": 8868,
      "Ġintegr": 8869,
      "Ġgathered": 8870,
      "Ġears": 8871,
      "Ġwars": 8872,
      "ĠHa": 8873,
      "unning": 8874,
      "after": 8875,
      "Ġhat": 8876,
      "obile": 8877,
      "Ġacknowled": 8878,
      "press": 8879,
      "Ġatoms": 8880,
      "Ġstrategic": 8881,
      "ĠAvoid": 8882,
      "Ġanticip": 8883,
      "Ġoccupied": 8884,
      "Ġwat": 8885,
      "Ġsolving": 8886,
      "2010": 8887,
      "Ġprevalence": 8888,
      "ĠPage": 8889,
      "ĠCub": 8890,
      "Ġfrust": 8891,
      "Sec": 8892,
      "Ġhaven": 8893,
      "Despite": 8894,
      "ĠSP": 8895,
      "Ġassembly": 8896,
      "Ġresil": 8897,
      "ĠMach": 8898,
      "Ġdevelops": 8899,
      "Ġreaches": 8900,
      "ĠMoses": 8901,
      "Ġcreativity": 8902,
      "Ġjuice": 8903,
      "Ġposts": 8904,
      "Ġholiday": 8905,
      "Ġrealized": 8906,
      "Ġnoticed": 8907,
      "Ġmunicip": 8908,
      "ĠMuslims": 8909,
      "Ġbreaking": 8910,
      "ĠDrug": 8911,
      "Ġsulf": 8912,
      "ĠMax": 8913,
      "Ġjoints": 8914,
      "Ġresistant": 8915,
      "Ġenzym": 8916,
      "Ġspan": 8917,
      "Ġopinions": 8918,
      "Ġreplacement": 8919,
      "Ġgly": 8920,
      "Ġcontents": 8921,
      "Ġtrem": 8922,
      "aya": 8923,
      "Ġalign": 8924,
      "Ġtact": 8925,
      "Ġcooperation": 8926,
      "ico": 8927,
      "Ġshore": 8928,
      "Ġsaving": 8929,
      "ĠAR": 8930,
      "iner": 8931,
      "estions": 8932,
      "claim": 8933,
      "Ġrecre": 8934,
      "ĠPhot": 8935,
      "ga": 8936,
      "ĠCE": 8937,
      "ilst": 8938,
      "Ġcrown": 8939,
      "ĠKey": 8940,
      "Ġshed": 8941,
      "ĠRam": 8942,
      "ĠNO": 8943,
      "Ġcontrolling": 8944,
      "ĠGall": 8945,
      "cule": 8946,
      "Ð°": 8947,
      "Ġfunded": 8948,
      "ĠMove": 8949,
      "ĠAlexander": 8950,
      "Ġreturns": 8951,
      "Ġemerged": 8952,
      "ĠSeveral": 8953,
      "omal": 8954,
      "unc": 8955,
      "Ġverb": 8956,
      "ĠID": 8957,
      "Ġshorter": 8958,
      "Ġlighting": 8959,
      "friend": 8960,
      "olt": 8961,
      "Like": 8962,
      "Ġtap": 8963,
      "ĠAsk": 8964,
      "ĠPortug": 8965,
      "ols": 8966,
      "ĠDigital": 8967,
      "mail": 8968,
      "Ġtelesc": 8969,
      "Source": 8970,
      "adelph": 8971,
      "Ġsoph": 8972,
      "Eng": 8973,
      "Ġcelebrate": 8974,
      "Ġsacred": 8975,
      "Ġdigestive": 8976,
      "Ġpairs": 8977,
      "Ġalgorithm": 8978,
      "Ġhal": 8979,
      "Ġinvolvement": 8980,
      "Ġexpertise": 8981,
      "onday": 8982,
      "Ġthroat": 8983,
      "Ġdraft": 8984,
      "ĠTreatment": 8985,
      "iterranean": 8986,
      "Ġorigins": 8987,
      "ĠFil": 8988,
      "plo": 8989,
      "ĠTown": 8990,
      "Ġgum": 8991,
      "ĠIncre": 8992,
      "Ġ120": 8993,
      "Ġsavings": 8994,
      "ĠConvention": 8995,
      "Ġmeaningful": 8996,
      "Ġorange": 8997,
      "Rep": 8998,
      "Ġunlikely": 8999,
      "Ġteens": 9000,
      "Ġpel": 9001,
      "Ġspoke": 9002,
      "Ġcouldn": 9003,
      "Ġ1940": 9004,
      "swe": 9005,
      "!âĢĿ": 9006,
      "Use": 9007,
      "lected": 9008,
      "izers": 9009,
      "Ġpeer": 9010,
      "Ġhandling": 9011,
      "ĠEgyptian": 9012,
      "Ġpersonnel": 9013,
      "Ġamino": 9014,
      "neum": 9015,
      "ĠChief": 9016,
      "Ġpaying": 9017,
      "ĠMess": 9018,
      "ĠNob": 9019,
      "ĠHT": 9020,
      "ĠHindu": 9021,
      "Ġpractition": 9022,
      "Ġscenario": 9023,
      "Ġcub": 9024,
      "agnetic": 9025,
      "Ġalarm": 9026,
      "Ġjoy": 9027,
      "Ġmanual": 9028,
      "Ġadopt": 9029,
      "ĠVietnam": 9030,
      "ĠDaniel": 9031,
      "oons": 9032,
      "Ġanger": 9033,
      "Ġspecified": 9034,
      "Ġhydro": 9035,
      "SP": 9036,
      "Ġassociate": 9037,
      "ĠIce": 9038,
      "Ġcompass": 9039,
      "Ġvegetable": 9040,
      "Ġsleeping": 9041,
      "ifier": 9042,
      "Ġvolunteers": 9043,
      "ĠLim": 9044,
      "Ġdisplayed": 9045,
      "Ġrepresenting": 9046,
      "Ġspecialized": 9047,
      "Ġchoosing": 9048,
      "icts": 9049,
      "Ġprox": 9050,
      "cho": 9051,
      "Ġdefault": 9052,
      "Ġauto": 9053,
      "Ġcough": 9054,
      ":||": 9055,
      "Tra": 9056,
      "Ġpenet": 9057,
      "Ġownership": 9058,
      "also": 9059,
      "rue": 9060,
      "TH": 9061,
      "Ġcheap": 9062,
      "Ġsale": 9063,
      "ĠKids": 9064,
      "Ġcellular": 9065,
      "cut": 9066,
      "Ġtill": 9067,
      "ateral": 9068,
      "thur": 9069,
      "Ġenjoyed": 9070,
      "olk": 9071,
      "Ġsees": 9072,
      "Ġassemb": 9073,
      "cin": 9074,
      "61": 9075,
      "Ġaddresses": 9076,
      "ĠVitamin": 9077,
      "Ġforecast": 9078,
      "chain": 9079,
      "Ġtomat": 9080,
      "ĠBeing": 9081,
      "oded": 9082,
      "ĠRail": 9083,
      "Ġenthus": 9084,
      "ĠImpro": 9085,
      "Ġstreams": 9086,
      "Ġprescribed": 9087,
      "Ġmammals": 9088,
      "Ġrefused": 9089,
      "ĠInvest": 9090,
      "Ġeverywhere": 9091,
      "function": 9092,
      "Ġwing": 9093,
      "Ġindirect": 9094,
      "Ġplanted": 9095,
      "Rel": 9096,
      "ĠKent": 9097,
      "atus": 9098,
      "ĠHeritage": 9099,
      "onents": 9100,
      "ĠRight": 9101,
      "izz": 9102,
      "Ġearthquake": 9103,
      "Gl": 9104,
      "Ġcirculation": 9105,
      "Ġannually": 9106,
      "Ġbreaks": 9107,
      "Ġabsorb": 9108,
      "ocity": 9109,
      "Ġdropped": 9110,
      "adelphia": 9111,
      "Ġlegit": 9112,
      "green": 9113,
      "Ġrestaur": 9114,
      "Ġol": 9115,
      "ĠAndrew": 9116,
      "Ġdeploy": 9117,
      "ĠFrid": 9118,
      "Ġrecording": 9119,
      "Two": 9120,
      "Ġcompetitive": 9121,
      "2011": 9122,
      "Ġadvances": 9123,
      "Ġbene": 9124,
      "ospel": 9125,
      "ifer": 9126,
      "Ġspacecraft": 9127,
      "isd": 9128,
      "Ġchurches": 9129,
      "Ġclay": 9130,
      "Ġreflected": 9131,
      "reens": 9132,
      "ĠAbraham": 9133,
      "ĠPerhaps": 9134,
      "Ġgift": 9135,
      "Ġburden": 9136,
      "oves": 9137,
      "ĠArts": 9138,
      "Ġreign": 9139,
      "Ġbasically": 9140,
      "Ġbleeding": 9141,
      "Ġincent": 9142,
      "ĠSecretary": 9143,
      "Ġuncle": 9144,
      "shaped": 9145,
      "Ġsug": 9146,
      "ĠFarm": 9147,
      "Ġrestoration": 9148,
      "Ġdescend": 9149,
      "Ġvaries": 9150,
      "ackson": 9151,
      "rowth": 9152,
      "uber": 9153,
      "Ġpets": 9154,
      "Ġexploring": 9155,
      "ĠNeed": 9156,
      "Ġgraduate": 9157,
      "54": 9158,
      "uity": 9159,
      "Ġchocolate": 9160,
      "Ġvisits": 9161,
      "Ġash": 9162,
      "Ġutility": 9163,
      "Ġhappiness": 9164,
      "ĠMedia": 9165,
      "Ġhospitals": 9166,
      "Ð¾": 9167,
      "OD": 9168,
      "UL": 9169,
      "ĠCapt": 9170,
      "Ġdisadvant": 9171,
      "Ġoutbreak": 9172,
      "Ġarise": 9173,
      "Ġsons": 9174,
      "Ġinvasion": 9175,
      "2012": 9176,
      "Ġimpair": 9177,
      "Ġprime": 9178,
      "Ġvaried": 9179,
      "Ġconversion": 9180,
      "ĠIllinois": 9181,
      "Ġsciences": 9182,
      "Ġion": 9183,
      "ĠVe": 9184,
      "Ġsurprise": 9185,
      "Ġ×": 9186,
      "ĠCreek": 9187,
      "Ġpermit": 9188,
[...]
